unsigned char SKF_Gear_model_keras_to_tflite_with_fe_tflite[] = {
  0x20, 0x00, 0x00, 0x00, 0x54, 0x46, 0x4c, 0x33, 0x00, 0x00, 0x00, 0x00,
  0x14, 0x00, 0x20, 0x00, 0x1c, 0x00, 0x18, 0x00, 0x14, 0x00, 0x10, 0x00,
  0x0c, 0x00, 0x00, 0x00, 0x08, 0x00, 0x04, 0x00, 0x14, 0x00, 0x00, 0x00,
  0x1c, 0x00, 0x00, 0x00, 0x88, 0x00, 0x00, 0x00, 0xe0, 0x00, 0x00, 0x00,
  0x84, 0x24, 0x00, 0x00, 0x94, 0x24, 0x00, 0x00, 0x54, 0x33, 0x00, 0x00,
  0x03, 0x00, 0x00, 0x00, 0x01, 0x00, 0x00, 0x00, 0x04, 0x00, 0x00, 0x00,
  0x4a, 0xda, 0xff, 0xff, 0x0c, 0x00, 0x00, 0x00, 0x1c, 0x00, 0x00, 0x00,
  0x38, 0x00, 0x00, 0x00, 0x0f, 0x00, 0x00, 0x00, 0x73, 0x65, 0x72, 0x76,
  0x69, 0x6e, 0x67, 0x5f, 0x64, 0x65, 0x66, 0x61, 0x75, 0x6c, 0x74, 0x00,
  0x01, 0x00, 0x00, 0x00, 0x04, 0x00, 0x00, 0x00, 0x94, 0xff, 0xff, 0xff,
  0x13, 0x00, 0x00, 0x00, 0x04, 0x00, 0x00, 0x00, 0x07, 0x00, 0x00, 0x00,
  0x64, 0x65, 0x6e, 0x73, 0x65, 0x5f, 0x31, 0x00, 0x01, 0x00, 0x00, 0x00,
  0x04, 0x00, 0x00, 0x00, 0x2a, 0xdb, 0xff, 0xff, 0x04, 0x00, 0x00, 0x00,
  0x0c, 0x00, 0x00, 0x00, 0x63, 0x6f, 0x6e, 0x76, 0x32, 0x64, 0x5f, 0x69,
  0x6e, 0x70, 0x75, 0x74, 0x00, 0x00, 0x00, 0x00, 0x02, 0x00, 0x00, 0x00,
  0x34, 0x00, 0x00, 0x00, 0x04, 0x00, 0x00, 0x00, 0xdc, 0xff, 0xff, 0xff,
  0x16, 0x00, 0x00, 0x00, 0x04, 0x00, 0x00, 0x00, 0x13, 0x00, 0x00, 0x00,
  0x43, 0x4f, 0x4e, 0x56, 0x45, 0x52, 0x53, 0x49, 0x4f, 0x4e, 0x5f, 0x4d,
  0x45, 0x54, 0x41, 0x44, 0x41, 0x54, 0x41, 0x00, 0x08, 0x00, 0x0c, 0x00,
  0x08, 0x00, 0x04, 0x00, 0x08, 0x00, 0x00, 0x00, 0x15, 0x00, 0x00, 0x00,
  0x04, 0x00, 0x00, 0x00, 0x13, 0x00, 0x00, 0x00, 0x6d, 0x69, 0x6e, 0x5f,
  0x72, 0x75, 0x6e, 0x74, 0x69, 0x6d, 0x65, 0x5f, 0x76, 0x65, 0x72, 0x73,
  0x69, 0x6f, 0x6e, 0x00, 0x17, 0x00, 0x00, 0x00, 0xa0, 0x23, 0x00, 0x00,
  0x98, 0x23, 0x00, 0x00, 0x80, 0x23, 0x00, 0x00, 0x5c, 0x23, 0x00, 0x00,
  0xac, 0x22, 0x00, 0x00, 0x1c, 0x22, 0x00, 0x00, 0x0c, 0x02, 0x00, 0x00,
  0xec, 0x01, 0x00, 0x00, 0xcc, 0x01, 0x00, 0x00, 0x7c, 0x01, 0x00, 0x00,
  0xdc, 0x00, 0x00, 0x00, 0xd4, 0x00, 0x00, 0x00, 0xcc, 0x00, 0x00, 0x00,
  0xc4, 0x00, 0x00, 0x00, 0xbc, 0x00, 0x00, 0x00, 0xb4, 0x00, 0x00, 0x00,
  0xac, 0x00, 0x00, 0x00, 0xa4, 0x00, 0x00, 0x00, 0x9c, 0x00, 0x00, 0x00,
  0x94, 0x00, 0x00, 0x00, 0x8c, 0x00, 0x00, 0x00, 0x6c, 0x00, 0x00, 0x00,
  0x04, 0x00, 0x00, 0x00, 0x02, 0xdc, 0xff, 0xff, 0x04, 0x00, 0x00, 0x00,
  0x58, 0x00, 0x00, 0x00, 0x0c, 0x00, 0x00, 0x00, 0x08, 0x00, 0x0e, 0x00,
  0x08, 0x00, 0x04, 0x00, 0x08, 0x00, 0x00, 0x00, 0x10, 0x00, 0x00, 0x00,
  0x28, 0x00, 0x00, 0x00, 0x00, 0x00, 0x06, 0x00, 0x08, 0x00, 0x04, 0x00,
  0x06, 0x00, 0x00, 0x00, 0x04, 0x00, 0x00, 0x00, 0x01, 0x00, 0x00, 0x00,
  0xeb, 0x03, 0x00, 0x00, 0x00, 0x00, 0x0a, 0x00, 0x10, 0x00, 0x0c, 0x00,
  0x08, 0x00, 0x04, 0x00, 0x0a, 0x00, 0x00, 0x00, 0x02, 0x00, 0x00, 0x00,
  0x02, 0x00, 0x00, 0x00, 0x04, 0x00, 0x00, 0x00, 0x06, 0x00, 0x00, 0x00,
  0x32, 0x2e, 0x31, 0x33, 0x2e, 0x30, 0x00, 0x00, 0x66, 0xdc, 0xff, 0xff,
  0x04, 0x00, 0x00, 0x00, 0x10, 0x00, 0x00, 0x00, 0x31, 0x2e, 0x31, 0x35,
  0x2e, 0x30, 0x00, 0x00, 0x00, 0x00, 0x00, 0x00, 0x00, 0x00, 0x00, 0x00,
  0xa0, 0xce, 0xff, 0xff, 0xa4, 0xce, 0xff, 0xff, 0xa8, 0xce, 0xff, 0xff,
  0xac, 0xce, 0xff, 0xff, 0xb0, 0xce, 0xff, 0xff, 0xb4, 0xce, 0xff, 0xff,
  0xb8, 0xce, 0xff, 0xff, 0xbc, 0xce, 0xff, 0xff, 0xc0, 0xce, 0xff, 0xff,
  0xc4, 0xce, 0xff, 0xff, 0xaa, 0xdc, 0xff, 0xff, 0x04, 0x00, 0x00, 0x00,
  0x90, 0x00, 0x00, 0x00, 0xd9, 0x2a, 0x7f, 0x1e, 0x2b, 0xff, 0xd3, 0x08,
  0xf3, 0x97, 0x4a, 0x02, 0x81, 0xeb, 0x25, 0x84, 0xbb, 0x24, 0x3e, 0x1a,
  0x7f, 0xd9, 0x00, 0x3a, 0x22, 0xfa, 0xdb, 0xe4, 0xfa, 0xda, 0xfc, 0x1a,
  0xff, 0x1e, 0x20, 0x81, 0x2e, 0xc6, 0xc4, 0xba, 0xc7, 0x9a, 0x7f, 0xf7,
  0xfe, 0xf2, 0xdf, 0xfd, 0x2e, 0x2f, 0x33, 0x39, 0x35, 0x7f, 0xbd, 0xf1,
  0x3f, 0x17, 0x8d, 0x14, 0xa8, 0x8c, 0x81, 0x51, 0xeb, 0x81, 0x53, 0xef,
  0xf9, 0x71, 0x07, 0xff, 0x45, 0xe6, 0x00, 0x59, 0x55, 0x81, 0xbf, 0x4d,
  0xf1, 0xf1, 0x81, 0xa6, 0xfa, 0xa0, 0x00, 0xf3, 0x82, 0xba, 0xfc, 0xe5,
  0xb9, 0xec, 0xf8, 0x7f, 0x0e, 0x21, 0x1b, 0xde, 0x30, 0x7f, 0xd5, 0xef,
  0xbf, 0x30, 0x2e, 0xe0, 0x7f, 0xf0, 0x2f, 0xff, 0x76, 0x0e, 0x49, 0x44,
  0x01, 0xb9, 0xe2, 0x28, 0x9b, 0x4e, 0x00, 0x81, 0xff, 0xe4, 0x35, 0xdc,
  0x7f, 0x36, 0xf6, 0x62, 0xec, 0xea, 0x10, 0xb1, 0x7f, 0x41, 0xf0, 0x4d,
  0xc3, 0x12, 0x1b, 0x72, 0x46, 0xdd, 0xff, 0xff, 0x04, 0x00, 0x00, 0x00,
  0x40, 0x00, 0x00, 0x00, 0x00, 0x00, 0x00, 0x00, 0x00, 0x00, 0x00, 0x00,
  0x00, 0x00, 0x00, 0x00, 0x00, 0x00, 0x00, 0x00, 0x00, 0x00, 0x00, 0x00,
  0x00, 0x00, 0x00, 0x00, 0x00, 0x00, 0x00, 0x00, 0x00, 0x00, 0x00, 0x00,
  0x00, 0x00, 0x00, 0x00, 0x00, 0x00, 0x00, 0x00, 0x00, 0x00, 0x00, 0x00,
  0x00, 0x00, 0x00, 0x00, 0x00, 0x00, 0x00, 0x00, 0x00, 0x00, 0x00, 0x00,
  0x00, 0x00, 0x00, 0x00, 0x00, 0x00, 0x00, 0x00, 0x92, 0xdd, 0xff, 0xff,
  0x04, 0x00, 0x00, 0x00, 0x10, 0x00, 0x00, 0x00, 0x00, 0x00, 0x00, 0x00,
  0x00, 0x00, 0x00, 0x00, 0x00, 0x02, 0x00, 0x00, 0x00, 0x00, 0x00, 0x00,
  0xae, 0xdd, 0xff, 0xff, 0x04, 0x00, 0x00, 0x00, 0x10, 0x00, 0x00, 0x00,
  0x87, 0x75, 0x11, 0x0b, 0x22, 0x80, 0x4e, 0xbd, 0xcd, 0x33, 0x09, 0xe8,
  0xbf, 0x5f, 0xf0, 0xd2, 0xca, 0xdd, 0xff, 0xff, 0x04, 0x00, 0x00, 0x00,
  0x00, 0x20, 0x00, 0x00, 0x0a, 0x13, 0xdf, 0xe4, 0xef, 0xdc, 0x25, 0x01,
  0x10, 0x19, 0x09, 0x22, 0x10, 0x17, 0x2c, 0x03, 0xdb, 0xfc, 0xea, 0xe1,
  0xf2, 0x15, 0xe5, 0x28, 0x0d, 0xed, 0xf6, 0xfa, 0x17, 0xf8, 0x04, 0xfa,
  0x02, 0xdc, 0xda, 0x0c, 0x2b, 0x2b, 0x0d, 0x0f, 0x08, 0x05, 0x1c, 0xf7,
  0xdd, 0x06, 0x0c, 0xf9, 0xef, 0x13, 0xf6, 0xea, 0x22, 0xd9, 0x09, 0x27,
  0x0a, 0xe8, 0x23, 0x0e, 0xee, 0x1c, 0x18, 0x05, 0x11, 0x2a, 0xde, 0xfa,
  0xf0, 0x13, 0x1c, 0x07, 0xe9, 0xff, 0x1b, 0xd3, 0xf7, 0xf7, 0xed, 0x15,
  0xee, 0x02, 0x2d, 0x21, 0xee, 0x06, 0x0f, 0x28, 0xfc, 0x26, 0x0b, 0xda,
  0x0f, 0xfd, 0x1a, 0x2a, 0x2a, 0x1f, 0x1e, 0x18, 0x0a, 0x04, 0xf8, 0xfa,
  0x07, 0xde, 0xda, 0xf3, 0xdb, 0x06, 0x01, 0xda, 0xed, 0xfa, 0x27, 0x11,
  0xdc, 0xec, 0x2e, 0xe0, 0xf2, 0x04, 0x0a, 0xf7, 0xe4, 0x20, 0xe7, 0xf8,
  0x1a, 0xe9, 0x12, 0x11, 0xfb, 0x0f, 0x17, 0x10, 0x03, 0xda, 0x15, 0xe4,
  0xe9, 0x1c, 0xeb, 0xe0, 0xef, 0xd9, 0x2b, 0x2b, 0x01, 0xff, 0x2d, 0x18,
  0xf8, 0xe8, 0x1f, 0x0b, 0x26, 0xf8, 0xf3, 0x13, 0xe0, 0x1b, 0xea, 0x22,
  0x20, 0x18, 0x05, 0x26, 0xdf, 0x28, 0xf7, 0x24, 0x0d, 0xe7, 0xe1, 0xfb,
  0x1c, 0x15, 0x0b, 0xe4, 0xec, 0x21, 0xf4, 0x15, 0xe3, 0xd9, 0xe5, 0x06,
  0xf2, 0xfc, 0x28, 0x1c, 0x08, 0x26, 0x1d, 0x0b, 0xf7, 0xe2, 0x11, 0xeb,
  0xe3, 0x10, 0xe7, 0x2a, 0xe2, 0xe4, 0x14, 0x02, 0x11, 0x03, 0xe1, 0xe5,
  0x06, 0x22, 0xf0, 0xde, 0xf3, 0xf5, 0xf0, 0xd9, 0xf9, 0xf2, 0x06, 0xee,
  0x1e, 0x2b, 0x1c, 0x2d, 0xec, 0xe0, 0xfe, 0xe5, 0xf9, 0x0b, 0x1f, 0xf8,
  0x0c, 0xdc, 0xf8, 0x24, 0x18, 0x18, 0x12, 0xe1, 0xf3, 0x03, 0x2f, 0xe3,
  0x2c, 0xeb, 0x26, 0x06, 0x06, 0xe2, 0xf5, 0xe9, 0x03, 0xf2, 0x1e, 0x10,
  0xff, 0x2b, 0xf0, 0xfb, 0xf7, 0xde, 0x0f, 0xff, 0xe0, 0xd0, 0x1a, 0xe1,
  0x24, 0xe0, 0x1f, 0x1e, 0x06, 0x14, 0x2b, 0xf6, 0x15, 0xea, 0xf0, 0x0d,
  0xde, 0x14, 0xdc, 0x0e, 0xed, 0x1f, 0x24, 0xde, 0x15, 0x27, 0xe7, 0xee,
  0x03, 0xde, 0xf0, 0xdb, 0xfe, 0xd8, 0x2d, 0x12, 0x1c, 0xf4, 0xfc, 0x11,
  0xf4, 0x1e, 0xf4, 0x18, 0x28, 0x27, 0x22, 0x10, 0x1a, 0x1a, 0xda, 0x2a,
  0x10, 0x0d, 0x12, 0xfd, 0x24, 0xf7, 0xe5, 0x28, 0x14, 0x26, 0xda, 0x09,
  0xe7, 0xe5, 0xeb, 0x15, 0x14, 0xf9, 0x12, 0x24, 0xf7, 0x1d, 0x28, 0xdd,
  0xe6, 0x24, 0xfc, 0xda, 0xea, 0xfa, 0x18, 0x1f, 0xf0, 0x07, 0xf6, 0x20,
  0x0c, 0xf9, 0xfb, 0x0b, 0x11, 0x04, 0xf9, 0x2a, 0x2b, 0x00, 0xdb, 0xf9,
  0xf8, 0xe3, 0x03, 0xda, 0x24, 0x1a, 0xef, 0xfb, 0xfd, 0x0e, 0x12, 0x22,
  0x05, 0xfa, 0x22, 0x1c, 0xdd, 0xe6, 0x09, 0x19, 0x0f, 0xf5, 0xe8, 0xf9,
  0x09, 0x21, 0x24, 0xde, 0xe5, 0x1f, 0x11, 0x02, 0xe5, 0xfd, 0x2c, 0x0d,
  0xed, 0xe7, 0x26, 0x16, 0xec, 0x2a, 0x0b, 0x04, 0x1e, 0xde, 0x03, 0xf3,
  0x1a, 0x17, 0xf6, 0xeb, 0x00, 0x0e, 0xf1, 0x07, 0xdc, 0x1a, 0x16, 0x19,
  0xfd, 0x16, 0x07, 0xe1, 0x15, 0x02, 0x1c, 0x01, 0x04, 0xe8, 0x12, 0xe4,
  0x28, 0xe7, 0xfb, 0x2a, 0x29, 0x1b, 0x21, 0xdd, 0x00, 0xeb, 0x25, 0xd4,
  0x12, 0xf4, 0x1c, 0x01, 0xfc, 0xec, 0x1a, 0x22, 0x23, 0xf0, 0xf9, 0x06,
  0xe1, 0x1c, 0xde, 0x17, 0xdc, 0xfe, 0xeb, 0x06, 0xf8, 0xe4, 0x12, 0xdb,
  0xe6, 0xf8, 0x04, 0x11, 0x19, 0x18, 0x2c, 0xe5, 0xfb, 0x29, 0x02, 0xfd,
  0x13, 0xfa, 0x18, 0x0f, 0x03, 0x04, 0xff, 0x26, 0x03, 0x1e, 0x0b, 0x04,
  0xf0, 0xef, 0x0b, 0x20, 0x2d, 0xda, 0x10, 0x2c, 0x16, 0xde, 0x15, 0xf4,
  0xf9, 0xfc, 0xfc, 0xf0, 0xf2, 0xe1, 0xf3, 0x13, 0xe6, 0xd1, 0x0d, 0xdf,
  0xf5, 0xf8, 0xd5, 0xf3, 0xe9, 0xe4, 0xd8, 0xe3, 0x0d, 0x05, 0xfe, 0xf6,
  0xf4, 0x0c, 0xca, 0xfc, 0xc9, 0xe9, 0xe1, 0xec, 0xcd, 0xe4, 0xdc, 0xd3,
  0x05, 0x0e, 0xd7, 0x05, 0x10, 0xd7, 0x15, 0xe3, 0xca, 0xf3, 0x08, 0xef,
  0xf7, 0x05, 0x00, 0x18, 0x03, 0xd0, 0xd0, 0xd3, 0xf8, 0xf2, 0xf8, 0x07,
  0x19, 0xce, 0xd0, 0xc8, 0xd7, 0xf3, 0xd2, 0xf3, 0xbd, 0xdf, 0xf4, 0xde,
  0xe5, 0x0a, 0xb7, 0xe6, 0xc1, 0xd9, 0x07, 0xc5, 0xff, 0xf8, 0xf5, 0x00,
  0xe5, 0xca, 0xe5, 0x14, 0xed, 0xf0, 0x07, 0x09, 0xd4, 0x20, 0xc7, 0xf1,
  0xe9, 0x03, 0xec, 0xeb, 0x0d, 0xce, 0xe8, 0xdc, 0xf9, 0xcb, 0xd3, 0x13,
  0x00, 0xdc, 0xe4, 0xff, 0xff, 0xfe, 0xe1, 0xd1, 0xe3, 0xfe, 0x0b, 0x01,
  0xf2, 0x0e, 0xcf, 0x05, 0xe5, 0x20, 0xc6, 0xc6, 0xaf, 0xb7, 0xd2, 0xbd,
  0xc6, 0xca, 0xe6, 0xcc, 0xc6, 0xc4, 0x10, 0xeb, 0xd2, 0xea, 0xf6, 0xc5,
  0x11, 0x0a, 0xcc, 0xd7, 0x12, 0xe5, 0xec, 0x0d, 0xfa, 0xd2, 0xeb, 0x0b,
  0x04, 0x1b, 0xd0, 0x0b, 0xe7, 0xde, 0xff, 0xf6, 0xd4, 0x01, 0xdb, 0xe3,
  0xc8, 0xf0, 0xf0, 0xe5, 0xca, 0xda, 0xfe, 0xed, 0xfc, 0xdc, 0xd3, 0x0f,
  0x0d, 0xc8, 0xd0, 0xea, 0x0d, 0x07, 0xd3, 0xf0, 0xfd, 0x1a, 0xef, 0xda,
  0xf3, 0x12, 0xdc, 0xc4, 0xf4, 0xe6, 0xba, 0xdc, 0xf7, 0x08, 0xf3, 0xbe,
  0xe4, 0xa1, 0x00, 0x05, 0xe9, 0x07, 0x03, 0x1a, 0xdb, 0x03, 0xd4, 0x0b,
  0xe5, 0x05, 0xf6, 0xf7, 0xc9, 0x13, 0xe9, 0x16, 0xe4, 0xfa, 0xf1, 0x0d,
  0xe7, 0xc8, 0xfa, 0xcb, 0x03, 0xe1, 0x11, 0x14, 0x16, 0xfd, 0x15, 0x04,
  0xf4, 0xda, 0xd6, 0xdd, 0xec, 0xc8, 0xd3, 0xce, 0x07, 0xfe, 0xd6, 0xfa,
  0xd6, 0xe6, 0xee, 0x09, 0x15, 0xdb, 0xdb, 0xf0, 0xdb, 0x0f, 0x23, 0x1a,
  0x20, 0xe6, 0x0b, 0xe7, 0xfb, 0xf2, 0xde, 0xfe, 0xdc, 0x1c, 0x25, 0x17,
  0x20, 0xf8, 0x2d, 0x2b, 0xe0, 0x13, 0xee, 0xe8, 0x2a, 0x14, 0xf3, 0xf0,
  0x1f, 0x1a, 0x0b, 0x20, 0x27, 0x17, 0x24, 0x09, 0xe0, 0x1d, 0x0e, 0xeb,
  0xeb, 0x25, 0x1a, 0xf9, 0x08, 0x1b, 0xee, 0xf8, 0xe3, 0xf1, 0x30, 0xdd,
  0xfb, 0x2c, 0x02, 0x2c, 0x1c, 0x29, 0x13, 0x1f, 0xf1, 0xe3, 0xdb, 0x23,
  0xe1, 0x20, 0xf6, 0xe4, 0x07, 0x1c, 0xef, 0xd1, 0x03, 0x22, 0xf8, 0xeb,
  0x2d, 0x1b, 0xe7, 0x1b, 0xf4, 0x2e, 0xf7, 0x12, 0xfe, 0xe7, 0x23, 0x1b,
  0x21, 0xfe, 0xe3, 0x02, 0xf4, 0xe3, 0x07, 0xdc, 0x1e, 0xf9, 0xef, 0xe1,
  0xe8, 0xec, 0x12, 0x06, 0xe9, 0x1b, 0xf1, 0x0c, 0xde, 0xf4, 0x2a, 0xfa,
  0xf0, 0xff, 0x23, 0xe7, 0x2d, 0x12, 0x1a, 0xe5, 0xde, 0xe6, 0xdb, 0xeb,
  0x16, 0x07, 0xd9, 0xe0, 0x11, 0xd6, 0xea, 0x22, 0x0b, 0x1e, 0xe1, 0xf9,
  0xe7, 0xe1, 0xd0, 0x1b, 0xdc, 0x2d, 0xe7, 0xfa, 0x20, 0x1a, 0x20, 0xed,
  0xfc, 0x08, 0x1e, 0x1d, 0xea, 0xe5, 0x15, 0xea, 0x0c, 0x29, 0x22, 0xe4,
  0x0b, 0xef, 0x27, 0x14, 0x03, 0x2e, 0x01, 0xe4, 0xf9, 0xfa, 0xe5, 0x00,
  0x27, 0x12, 0x14, 0x00, 0x07, 0x00, 0x28, 0xdc, 0x1d, 0xf8, 0xfc, 0xf3,
  0x2c, 0xfe, 0x1d, 0xff, 0x17, 0x2d, 0x19, 0xf8, 0x19, 0xdc, 0xeb, 0xda,
  0xcf, 0xfe, 0x0e, 0xf3, 0xe4, 0xe1, 0x04, 0x04, 0xe0, 0xe9, 0x0d, 0x11,
  0xe6, 0x22, 0x19, 0x2a, 0xf1, 0x26, 0xf5, 0x0d, 0xf1, 0x04, 0x0a, 0xfa,
  0xff, 0xff, 0xf2, 0xdc, 0x08, 0xef, 0xf2, 0x19, 0x0a, 0xfd, 0x18, 0xff,
  0x11, 0x15, 0xf1, 0x21, 0x14, 0x1e, 0xf9, 0xf1, 0x07, 0xdf, 0xea, 0x11,
  0x0a, 0x03, 0xf9, 0x1d, 0xff, 0x0b, 0x10, 0x01, 0xeb, 0xe3, 0x06, 0x0c,
  0xf2, 0xd8, 0xff, 0x04, 0xe2, 0xf6, 0xd4, 0x24, 0xe8, 0xe2, 0xe5, 0x0d,
  0x08, 0x2e, 0xe2, 0x27, 0xe8, 0x06, 0x05, 0xe1, 0x17, 0x08, 0xe0, 0xea,
  0x13, 0xe2, 0x01, 0x19, 0xef, 0xe4, 0xf5, 0x0c, 0x11, 0xf4, 0x10, 0x0d,
  0x12, 0x16, 0xf0, 0xfe, 0x07, 0x0c, 0x21, 0xdc, 0x2a, 0x1b, 0xff, 0x1d,
  0x2f, 0x07, 0xfb, 0x06, 0xf4, 0x21, 0xe3, 0xea, 0x04, 0xf0, 0x0e, 0xe6,
  0x17, 0x09, 0x0b, 0xd0, 0xd9, 0xde, 0x26, 0x1d, 0xcd, 0x05, 0x00, 0x1c,
  0xfb, 0x19, 0x12, 0xe5, 0xe3, 0xdc, 0xe6, 0xf3, 0x2c, 0x26, 0x19, 0x13,
  0x05, 0xf9, 0x06, 0x2d, 0xdf, 0xf8, 0x1a, 0xe8, 0x2c, 0x16, 0x0f, 0xfe,
  0x10, 0x24, 0x10, 0x02, 0x27, 0xf2, 0x2a, 0x03, 0x2e, 0xef, 0x1d, 0x0d,
  0xee, 0xed, 0xef, 0x15, 0xf3, 0x0e, 0xe4, 0xfd, 0xf3, 0x1e, 0x20, 0x2c,
  0xf4, 0x27, 0x1c, 0x0f, 0xe9, 0xe2, 0x00, 0x21, 0xff, 0xe4, 0xe9, 0x07,
  0x1e, 0x10, 0x26, 0x17, 0xd7, 0xce, 0x21, 0x1d, 0xf0, 0xef, 0x06, 0xf7,
  0xe3, 0x1f, 0x25, 0x2b, 0x08, 0x29, 0x22, 0xdb, 0x19, 0x1a, 0xf5, 0x02,
  0x29, 0x22, 0x1a, 0xdc, 0x13, 0x16, 0xe4, 0x0f, 0x0e, 0x07, 0x27, 0x21,
  0x14, 0x07, 0xf5, 0x02, 0xdc, 0xed, 0xf0, 0xf3, 0xe2, 0xe7, 0xe7, 0x04,
  0x0e, 0x1d, 0x04, 0x19, 0xe2, 0xec, 0x11, 0x1c, 0xf2, 0x22, 0x07, 0x01,
  0xf0, 0x10, 0xf8, 0xd1, 0xfe, 0x0b, 0xd6, 0xdb, 0x22, 0xd3, 0xe2, 0x1b,
  0xee, 0x05, 0xf0, 0xf2, 0x18, 0x15, 0xfa, 0xf7, 0x19, 0xf3, 0x20, 0xde,
  0xf3, 0x23, 0x0e, 0xfd, 0x10, 0x2d, 0x26, 0x29, 0xeb, 0x03, 0xfb, 0x01,
  0x2b, 0xf5, 0xed, 0x07, 0x02, 0x2c, 0x08, 0x28, 0x22, 0xe6, 0xe4, 0x22,
  0xea, 0x29, 0xe5, 0x11, 0x16, 0xcf, 0xf1, 0xde, 0xea, 0x23, 0xf8, 0xf0,
  0x11, 0xe7, 0x07, 0x0c, 0xf4, 0x01, 0xe9, 0xf9, 0xf5, 0x07, 0xf0, 0x12,
  0x02, 0xdd, 0x15, 0xf6, 0xe5, 0xf0, 0x13, 0x19, 0x2b, 0x14, 0x23, 0x13,
  0xed, 0x01, 0x14, 0x1a, 0xe7, 0xdc, 0xeb, 0x05, 0x01, 0x2a, 0x11, 0x0c,
  0xfb, 0x11, 0x0c, 0xec, 0xf3, 0x17, 0xfd, 0xdb, 0x27, 0x08, 0x1b, 0xdb,
  0x01, 0x06, 0xfd, 0xdc, 0x0e, 0x13, 0xde, 0x24, 0xde, 0x06, 0xfe, 0x05,
  0x26, 0x0b, 0xe6, 0xf9, 0xf3, 0x0d, 0x1a, 0xee, 0x19, 0x1a, 0xe3, 0xf2,
  0xf2, 0x07, 0x1d, 0x20, 0xf6, 0xef, 0x03, 0xf7, 0xfe, 0xdd, 0x2e, 0x14,
  0xe8, 0x0e, 0x1a, 0xe3, 0x24, 0x1b, 0x25, 0x17, 0xe7, 0x1f, 0xf0, 0x1a,
  0x24, 0x1b, 0xf0, 0xe3, 0x0d, 0x03, 0xf4, 0xee, 0xde, 0xe8, 0xfe, 0x2d,
  0x2f, 0xde, 0xe2, 0x0a, 0x13, 0xfd, 0x27, 0x1e, 0x27, 0xeb, 0xef, 0x10,
  0x29, 0x02, 0xfa, 0xea, 0x1d, 0xf6, 0x20, 0x10, 0xda, 0xe4, 0x23, 0xfe,
  0x1d, 0xfe, 0x14, 0xfb, 0xf9, 0xf8, 0xe8, 0xf5, 0x1b, 0xf8, 0x1b, 0x06,
  0x2b, 0x22, 0xe5, 0xfe, 0x26, 0x02, 0x23, 0xfc, 0x24, 0x0f, 0xe1, 0x04,
  0x01, 0x11, 0x02, 0x04, 0x2c, 0x01, 0x12, 0xdd, 0x2c, 0x06, 0xe2, 0xee,
  0x1d, 0x20, 0x1c, 0x28, 0xdd, 0xf3, 0x30, 0x1e, 0x16, 0xdc, 0xf7, 0xdc,
  0xdc, 0x0a, 0xf8, 0xe1, 0x2a, 0x18, 0x1b, 0xf1, 0x1b, 0x1d, 0xe6, 0x00,
  0xf8, 0x0f, 0x07, 0x19, 0xf5, 0x0c, 0xfd, 0x2e, 0x01, 0xe4, 0xfd, 0x24,
  0x08, 0x04, 0x2d, 0x08, 0xf0, 0x26, 0xf0, 0x08, 0xf3, 0x14, 0x20, 0x01,
  0x27, 0x29, 0xf3, 0xec, 0x0a, 0x20, 0x2b, 0xfc, 0x25, 0xe1, 0xde, 0xe9,
  0xf8, 0x12, 0xfa, 0x2e, 0xee, 0x07, 0x09, 0xff, 0x1a, 0x28, 0x07, 0xee,
  0x09, 0xe6, 0x10, 0x26, 0x0e, 0xee, 0x1e, 0x1b, 0x1c, 0xe9, 0xda, 0xeb,
  0xe0, 0xeb, 0xde, 0x27, 0x0a, 0x03, 0x12, 0x45, 0x1d, 0x20, 0xf9, 0x36,
  0x0f, 0xf9, 0x61, 0x23, 0x0e, 0x43, 0x22, 0xf0, 0xfa, 0x28, 0xe5, 0xff,
  0x0b, 0xf1, 0xdd, 0x0d, 0xfe, 0x05, 0x26, 0xff, 0xed, 0x19, 0xed, 0xe1,
  0x05, 0x1f, 0xfd, 0x05, 0xfc, 0xfc, 0x2a, 0x2a, 0xfb, 0xed, 0xfc, 0xe1,
  0x18, 0x09, 0x1f, 0xf8, 0xf2, 0x03, 0x29, 0xec, 0x1b, 0xec, 0xf0, 0xe3,
  0x06, 0x5e, 0xe9, 0x05, 0x01, 0xf8, 0x11, 0xed, 0xd1, 0x11, 0x01, 0xe4,
  0xe1, 0x01, 0x44, 0x16, 0xf4, 0x28, 0x05, 0x1f, 0x0d, 0xfe, 0x30, 0xe0,
  0xdf, 0x04, 0x0c, 0xff, 0xf2, 0x2d, 0x19, 0x09, 0xfa, 0x21, 0xec, 0xf2,
  0x2d, 0xf2, 0x24, 0x01, 0x27, 0x01, 0x1e, 0xeb, 0xfb, 0xe5, 0xfb, 0x08,
  0x11, 0x20, 0x2b, 0x07, 0xf7, 0xf8, 0xec, 0x20, 0x0e, 0xf7, 0xe8, 0xff,
  0x2b, 0x2e, 0xee, 0x1b, 0x31, 0xf8, 0x2c, 0x03, 0xf2, 0x21, 0x03, 0x18,
  0x20, 0x1e, 0x21, 0xda, 0xfc, 0xef, 0x07, 0x16, 0xd4, 0x1f, 0x1c, 0xee,
  0x1c, 0x11, 0x27, 0xef, 0xde, 0xde, 0xe4, 0x20, 0xf6, 0x1f, 0xf9, 0x09,
  0x04, 0xf8, 0xef, 0xf5, 0x1b, 0x14, 0xee, 0x17, 0x13, 0xf9, 0x22, 0xf5,
  0x05, 0x1a, 0xe3, 0xfb, 0xfe, 0xde, 0xff, 0x1d, 0xeb, 0xf0, 0xf4, 0x2d,
  0x27, 0xf4, 0x2b, 0x2a, 0xe1, 0x24, 0xf1, 0xf2, 0x22, 0xf5, 0xfb, 0x0b,
  0x2b, 0xfa, 0xe2, 0xf5, 0x35, 0x1b, 0x42, 0x3f, 0x29, 0x1d, 0xee, 0x67,
  0x55, 0x26, 0xfb, 0x2e, 0x10, 0x10, 0x2d, 0x2d, 0x32, 0xdb, 0x21, 0x16,
  0x15, 0x23, 0xea, 0xec, 0x17, 0xf1, 0x2d, 0x29, 0xf4, 0x2e, 0x03, 0xfa,
  0xef, 0xed, 0x1d, 0x1c, 0x05, 0xf8, 0x2d, 0xef, 0xed, 0x13, 0x25, 0x1c,
  0x0f, 0xf7, 0x1c, 0x2a, 0x2d, 0x04, 0xdf, 0x0f, 0x08, 0x22, 0xe5, 0xfe,
  0xf8, 0xf0, 0x11, 0x15, 0x0d, 0xfd, 0x2a, 0xff, 0x08, 0xe1, 0xf1, 0x24,
  0x09, 0xf0, 0xeb, 0xe3, 0xea, 0x0f, 0xfb, 0xe8, 0xf9, 0xf1, 0xde, 0x24,
  0xdc, 0x0c, 0x0f, 0xed, 0x1f, 0x10, 0xf9, 0xf7, 0x21, 0xf9, 0x13, 0xe8,
  0xed, 0x26, 0xdb, 0xda, 0xf3, 0x16, 0x0f, 0xee, 0xf3, 0x23, 0xf0, 0xf1,
  0x01, 0x20, 0x13, 0x20, 0xe1, 0x0f, 0x27, 0x1e, 0xe4, 0x1c, 0xdf, 0x22,
  0xfd, 0x0f, 0x17, 0xfc, 0xff, 0xfd, 0x12, 0xf2, 0xfd, 0xf6, 0xd9, 0xfc,
  0x00, 0xda, 0xd9, 0xdb, 0xd9, 0x03, 0x1a, 0x0b, 0xf0, 0xf4, 0x04, 0x1c,
  0x03, 0x02, 0xe0, 0x00, 0x0c, 0x02, 0x16, 0xe7, 0x13, 0xdf, 0x13, 0x1c,
  0x07, 0xfa, 0xfd, 0x13, 0x0c, 0xe1, 0xeb, 0x1e, 0x04, 0xe4, 0x01, 0xe7,
  0xe0, 0xde, 0x0d, 0x02, 0xde, 0x28, 0xdc, 0x29, 0xf7, 0xff, 0x22, 0xeb,
  0xd9, 0x1c, 0xf4, 0x01, 0x11, 0xda, 0x24, 0x03, 0x05, 0x00, 0xdb, 0x20,
  0x02, 0x03, 0xfc, 0x10, 0x10, 0x0c, 0xd1, 0x0a, 0xd0, 0x12, 0x1f, 0xdc,
  0x12, 0x18, 0xf7, 0xe7, 0xe7, 0x19, 0xf4, 0x12, 0x0a, 0x23, 0xf8, 0xde,
  0xdd, 0x22, 0x07, 0x02, 0x18, 0x0f, 0xfd, 0x11, 0xeb, 0x10, 0x08, 0xed,
  0x20, 0x0a, 0xf9, 0xe4, 0x00, 0x18, 0x06, 0x28, 0xde, 0xea, 0x24, 0xde,
  0xda, 0xe9, 0xf4, 0x23, 0xe0, 0xdd, 0x02, 0xdc, 0xe7, 0x0d, 0x1a, 0x11,
  0x0f, 0x17, 0x0b, 0xe7, 0x06, 0xf9, 0x19, 0x0c, 0xf7, 0xec, 0x21, 0xf8,
  0xe8, 0x02, 0x04, 0x06, 0xe5, 0x21, 0x14, 0xfb, 0xef, 0x23, 0xed, 0xf6,
  0x21, 0x2b, 0xe9, 0x23, 0xef, 0x1a, 0x10, 0x11, 0x19, 0xf5, 0xf7, 0xed,
  0xe7, 0xf6, 0x2b, 0x2c, 0x2d, 0xf1, 0x1a, 0x12, 0x26, 0x1f, 0x21, 0xfb,
  0xfd, 0xf5, 0xfb, 0x07, 0x14, 0x25, 0x28, 0xf9, 0x19, 0x1b, 0xf6, 0x08,
  0xde, 0x1e, 0xe7, 0xfa, 0x02, 0xe5, 0x1a, 0xe8, 0x0b, 0xd8, 0xda, 0xdd,
  0x12, 0xdc, 0xf1, 0xd9, 0xc0, 0xed, 0xfc, 0x05, 0x1c, 0x2a, 0xec, 0xf2,
  0xe2, 0xf1, 0xf4, 0x15, 0xe9, 0x1a, 0x22, 0x1d, 0x14, 0x0d, 0xf7, 0xef,
  0x18, 0x27, 0xe4, 0xfd, 0xfc, 0xf8, 0x1c, 0x10, 0x1a, 0x04, 0x01, 0x08,
  0x13, 0x21, 0xf0, 0xeb, 0xe4, 0xfa, 0x01, 0x07, 0xfd, 0x1d, 0xf4, 0x10,
  0xea, 0xf4, 0x1c, 0x29, 0x23, 0x13, 0x07, 0xf1, 0xea, 0x28, 0x22, 0x06,
  0x16, 0xf9, 0x17, 0x1a, 0xda, 0xdc, 0x0b, 0x0e, 0x20, 0x0e, 0x1b, 0xfe,
  0x15, 0xdb, 0xf4, 0xfe, 0x18, 0x1e, 0xfc, 0x0f, 0xf4, 0x25, 0x05, 0xdd,
  0x09, 0x12, 0xdd, 0x19, 0x0a, 0x05, 0xe5, 0xeb, 0xee, 0xe4, 0xe1, 0xe9,
  0xd9, 0x0a, 0xe9, 0xfe, 0x17, 0xd7, 0x1d, 0xe9, 0x1d, 0x06, 0xff, 0x28,
  0x2a, 0x08, 0xf5, 0x17, 0x17, 0x22, 0xe7, 0x07, 0xec, 0x0f, 0xef, 0x15,
  0x03, 0xfb, 0x23, 0xda, 0x0b, 0x0b, 0x15, 0x27, 0x08, 0x1b, 0xf1, 0x14,
  0x14, 0xe2, 0xd6, 0x1d, 0x09, 0xe3, 0x1e, 0xd6, 0xf2, 0x1a, 0x0c, 0xfe,
  0x27, 0x18, 0xe8, 0xd8, 0x22, 0x28, 0x1b, 0x17, 0xf1, 0xe2, 0x0b, 0xd9,
  0xfa, 0xfd, 0x1f, 0xfa, 0xec, 0xf7, 0x10, 0xff, 0x26, 0x11, 0xff, 0x24,
  0xd9, 0xe8, 0xfd, 0x18, 0x0e, 0x27, 0xf5, 0xe4, 0x00, 0xf0, 0x11, 0x0b,
  0xe2, 0xef, 0x0e, 0x22, 0xfd, 0xf5, 0x1d, 0x09, 0x16, 0xfc, 0xe9, 0x19,
  0xeb, 0x12, 0xe0, 0xf9, 0x03, 0x08, 0xdd, 0x01, 0xed, 0xec, 0xe8, 0xdb,
  0xdd, 0x08, 0xdf, 0xe7, 0xec, 0xff, 0x28, 0x26, 0xfc, 0x06, 0xeb, 0xd8,
  0xf8, 0x19, 0xf7, 0xf5, 0xe9, 0xe8, 0x0a, 0xf9, 0xf1, 0xda, 0xdb, 0x1b,
  0xd5, 0xe2, 0xdc, 0x2a, 0xda, 0x06, 0xf1, 0xec, 0x11, 0xf7, 0x10, 0x0b,
  0x10, 0x03, 0x19, 0xfd, 0xd6, 0x21, 0xda, 0xda, 0xf2, 0xf5, 0x0b, 0x1e,
  0x11, 0xd7, 0xef, 0x05, 0x07, 0x0d, 0x2f, 0x01, 0xfc, 0xfa, 0x01, 0x26,
  0xe9, 0x2b, 0xe8, 0xfc, 0x26, 0x02, 0xdf, 0x25, 0xff, 0x29, 0xff, 0xf6,
  0xf9, 0xee, 0x11, 0x25, 0x00, 0x02, 0xf4, 0x13, 0xe9, 0xee, 0xeb, 0x17,
  0x2a, 0x2d, 0x24, 0x00, 0x1b, 0x03, 0x05, 0x03, 0xe8, 0xf8, 0x1f, 0x02,
  0xee, 0xdf, 0x0b, 0x2a, 0x10, 0x30, 0xe6, 0x17, 0x2c, 0x2f, 0xe5, 0xff,
  0x17, 0xf9, 0x2c, 0x2a, 0x2a, 0xe1, 0xfe, 0xec, 0x24, 0xfc, 0xe8, 0x18,
  0xe7, 0x05, 0xeb, 0xf7, 0xf8, 0x14, 0xe0, 0xeb, 0x17, 0xe7, 0x0b, 0x1d,
  0x27, 0xe7, 0x10, 0xe9, 0x07, 0x0d, 0xe8, 0xe9, 0x13, 0x2f, 0x18, 0x03,
  0xfc, 0x10, 0xe2, 0x22, 0xed, 0xec, 0x0a, 0x10, 0x05, 0x08, 0xf5, 0x0d,
  0x1c, 0x24, 0xfd, 0xf8, 0xea, 0x1b, 0x2b, 0x15, 0x1a, 0xed, 0xeb, 0xf8,
  0xf2, 0x31, 0xf8, 0x14, 0xe6, 0x14, 0x10, 0xe1, 0x22, 0xed, 0x21, 0xe8,
  0xe5, 0x15, 0x1a, 0xda, 0x1e, 0xed, 0xd8, 0x01, 0x0d, 0xd9, 0x19, 0xe0,
  0x03, 0xfd, 0x02, 0x15, 0x00, 0xf7, 0xe7, 0x1b, 0x16, 0x17, 0xe7, 0xff,
  0x2b, 0x04, 0x1a, 0xfe, 0x2f, 0x19, 0x0b, 0xed, 0xe2, 0xe2, 0x0d, 0x32,
  0x10, 0x08, 0xf4, 0xe7, 0x02, 0xff, 0x1b, 0xdf, 0xf4, 0x09, 0x0c, 0xf3,
  0x31, 0xeb, 0x2b, 0xf0, 0x33, 0x27, 0x19, 0x0b, 0x06, 0x04, 0x10, 0x09,
  0xed, 0xf4, 0xf8, 0xea, 0xf6, 0x2f, 0x2f, 0xf2, 0xe4, 0x08, 0xfa, 0x21,
  0x09, 0x29, 0xfb, 0xde, 0xf9, 0xf8, 0xdd, 0xe5, 0x24, 0xde, 0x30, 0x08,
  0x02, 0x11, 0xf1, 0x2e, 0xe0, 0xe3, 0xed, 0x19, 0x13, 0x07, 0x00, 0xec,
  0x23, 0xed, 0xfa, 0xee, 0x1d, 0x10, 0xfd, 0x30, 0x07, 0x19, 0x0a, 0x09,
  0xef, 0xeb, 0xea, 0xee, 0xfc, 0x08, 0x12, 0xf8, 0xfd, 0xe8, 0x01, 0x16,
  0xfb, 0xe8, 0x08, 0x19, 0x1e, 0x04, 0x0a, 0x1e, 0x1b, 0x10, 0x16, 0x1d,
  0xe5, 0x21, 0x00, 0xfc, 0xd9, 0xf8, 0x01, 0x15, 0xdb, 0x1f, 0x13, 0xf0,
  0xea, 0x12, 0x29, 0x2c, 0x2b, 0x16, 0xf9, 0x02, 0xf7, 0xe8, 0x15, 0x03,
  0x14, 0x23, 0x0d, 0x2a, 0xe1, 0x1b, 0xe2, 0x12, 0xe4, 0xe4, 0xed, 0x26,
  0x2b, 0x23, 0x1b, 0xe8, 0xdd, 0x06, 0xe6, 0x05, 0xe7, 0x2a, 0x06, 0xf1,
  0x19, 0xf4, 0x01, 0x02, 0xeb, 0x06, 0x14, 0x29, 0x1e, 0x05, 0xe2, 0x18,
  0xd7, 0x1f, 0x01, 0xe5, 0x1f, 0xdf, 0xef, 0x13, 0xd8, 0xe6, 0xdc, 0xed,
  0x10, 0x12, 0x02, 0xe4, 0x29, 0x0f, 0x2d, 0xdb, 0x20, 0xe5, 0x20, 0xec,
  0x2b, 0x10, 0x1a, 0xdf, 0xdd, 0xfb, 0xda, 0x16, 0xfd, 0xea, 0x08, 0xfd,
  0x2c, 0xe8, 0xff, 0xe3, 0xd9, 0x29, 0x17, 0xde, 0xf5, 0xec, 0x00, 0xfc,
  0x29, 0x12, 0xf2, 0xda, 0xf2, 0x06, 0x17, 0xd9, 0x11, 0x0c, 0x23, 0x1c,
  0x03, 0xdc, 0xfe, 0xf9, 0x13, 0xe6, 0xf0, 0xe2, 0x16, 0xfd, 0xf6, 0x03,
  0xd4, 0x0f, 0x17, 0x19, 0x26, 0xe7, 0xe8, 0xdc, 0xee, 0xef, 0x0c, 0xe9,
  0x1a, 0xfc, 0xfa, 0x14, 0xfa, 0xfa, 0xf6, 0xfa, 0x0b, 0x0f, 0x0c, 0xdc,
  0xfd, 0xf9, 0x14, 0x12, 0x22, 0x0b, 0x05, 0x23, 0x06, 0xe4, 0xdf, 0xfc,
  0x27, 0x28, 0x20, 0xfd, 0xf4, 0xf9, 0x01, 0x1f, 0x26, 0x23, 0xe2, 0xea,
  0xe7, 0xfa, 0x1f, 0x1e, 0xe5, 0xf7, 0x29, 0xf7, 0x00, 0xff, 0x07, 0xe8,
  0xdf, 0xec, 0xed, 0x0b, 0xdb, 0x29, 0x06, 0xed, 0x21, 0xf0, 0x06, 0xf8,
  0xfc, 0x00, 0xdb, 0xf8, 0x03, 0xf8, 0x05, 0x1e, 0xed, 0x1a, 0xe8, 0xfa,
  0xee, 0x13, 0xee, 0x21, 0x19, 0x13, 0xfd, 0xf3, 0x04, 0x25, 0xe8, 0x28,
  0xf4, 0x08, 0x27, 0xe6, 0x0e, 0x16, 0x26, 0x2d, 0xdd, 0xe3, 0xf5, 0x11,
  0x28, 0xea, 0xea, 0xf2, 0x05, 0x02, 0xd9, 0xf0, 0x05, 0x2c, 0xed, 0xea,
  0xeb, 0x00, 0x18, 0xe2, 0xf6, 0xe1, 0xd1, 0x03, 0xd8, 0x19, 0xde, 0xef,
  0xc8, 0xf6, 0x10, 0xf8, 0xff, 0x21, 0xd6, 0xd6, 0x17, 0xfe, 0xcf, 0xcc,
  0xd8, 0xe9, 0xd5, 0xca, 0x10, 0xf5, 0xcd, 0xcd, 0xfa, 0xd3, 0xd4, 0xf7,
  0xc9, 0xce, 0xf9, 0x12, 0xcd, 0xe0, 0xf7, 0x14, 0x14, 0x0a, 0xdf, 0x12,
  0xd7, 0x18, 0xdf, 0x16, 0xec, 0xd6, 0xe4, 0xff, 0xe7, 0x0e, 0xe3, 0xfd,
  0x00, 0xd8, 0xcf, 0xd8, 0xe8, 0xdd, 0xd7, 0xf7, 0xda, 0xd0, 0xee, 0xac,
  0xb0, 0xf9, 0xc1, 0xb8, 0xee, 0xd3, 0x13, 0xc8, 0xc1, 0xd8, 0xec, 0xcf,
  0xd0, 0xde, 0xcc, 0xe8, 0xd5, 0xe8, 0xee, 0x03, 0x03, 0xcd, 0xd2, 0xe1,
  0xc6, 0xfe, 0xf8, 0x00, 0xf1, 0xc2, 0xd0, 0xea, 0x08, 0x0a, 0xca, 0xf6,
  0xec, 0xdb, 0x07, 0x0e, 0xc7, 0x24, 0x06, 0xf2, 0x0f, 0x09, 0x11, 0xc8,
  0xd9, 0xf3, 0xd6, 0xdc, 0xd0, 0xd4, 0xf1, 0x10, 0xb9, 0xbb, 0xc8, 0xeb,
  0xf3, 0xde, 0xe9, 0xd5, 0xe6, 0xf6, 0xff, 0xf4, 0xc8, 0xb8, 0xda, 0xc3,
  0x10, 0x03, 0xfb, 0xf5, 0xef, 0xc9, 0xef, 0x15, 0xd0, 0xf3, 0xda, 0xce,
  0xcd, 0xe1, 0xeb, 0xfd, 0xd8, 0xd6, 0xce, 0x04, 0x17, 0xf7, 0x13, 0xd6,
  0xdc, 0x10, 0xe2, 0xf2, 0x06, 0xe7, 0xf3, 0xfb, 0xea, 0xdd, 0xce, 0xc8,
  0xe4, 0xd3, 0x12, 0x05, 0x00, 0x13, 0xe5, 0xda, 0xdd, 0xe3, 0xf9, 0x13,
  0x05, 0xd5, 0xed, 0xcb, 0xfc, 0x02, 0xd6, 0xdf, 0xba, 0xdd, 0xd9, 0xf8,
  0xdc, 0xed, 0xbe, 0xc8, 0x08, 0xd5, 0x03, 0xc6, 0x0e, 0xd6, 0x0d, 0xd7,
  0xd3, 0xde, 0x0e, 0xd6, 0xfb, 0xd7, 0x07, 0xd3, 0xf2, 0x06, 0xdf, 0xc6,
  0x19, 0xed, 0xdc, 0xda, 0xf3, 0x08, 0x16, 0xd4, 0xf4, 0xf1, 0x17, 0xed,
  0xd7, 0xe5, 0xed, 0xd5, 0xd2, 0x0b, 0xc1, 0x06, 0x0f, 0xe3, 0x17, 0x10,
  0xe2, 0xe8, 0xfa, 0x00, 0xeb, 0xf4, 0x03, 0x0c, 0xeb, 0xe3, 0xfb, 0x01,
  0xea, 0xfe, 0x0d, 0xf4, 0x21, 0x19, 0x19, 0xe6, 0x21, 0xdb, 0x29, 0x26,
  0x1a, 0x1f, 0x0e, 0xe1, 0xfc, 0xfd, 0x0b, 0x1d, 0xdb, 0xfb, 0x2d, 0x0c,
  0x21, 0x2b, 0xe7, 0xe5, 0x1d, 0x1b, 0x0e, 0x28, 0x1f, 0xe2, 0xf4, 0x15,
  0xef, 0xfe, 0x1c, 0x2e, 0xf1, 0xe5, 0xdb, 0xf6, 0x1c, 0x02, 0x02, 0x1d,
  0x24, 0x08, 0x0c, 0xfb, 0x17, 0x07, 0xe2, 0x25, 0x24, 0x0b, 0x24, 0xf0,
  0x0a, 0x02, 0x10, 0xe2, 0x1f, 0x0a, 0x1b, 0x07, 0x22, 0x00, 0xd8, 0x1a,
  0xe9, 0xe8, 0xdc, 0x1b, 0x10, 0xfd, 0xe9, 0x16, 0x08, 0x2e, 0x16, 0xfa,
  0xf9, 0xed, 0x07, 0xfb, 0xf4, 0x14, 0x16, 0x11, 0xee, 0xee, 0xe4, 0x18,
  0x09, 0x21, 0x12, 0xfc, 0x01, 0x1c, 0x21, 0x2d, 0xe9, 0xfd, 0xf2, 0x27,
  0x20, 0x29, 0x14, 0x27, 0x1d, 0xe3, 0xf4, 0xe1, 0x1c, 0x0b, 0x09, 0x2f,
  0x13, 0x14, 0xe7, 0xf7, 0xf0, 0xf3, 0xeb, 0xe5, 0xf3, 0x0b, 0x15, 0xfe,
  0xf7, 0xf1, 0xdf, 0x23, 0x1a, 0xdd, 0x0e, 0x08, 0x2d, 0x2c, 0x28, 0x12,
  0xe2, 0xf9, 0x0a, 0xef, 0xf3, 0xe6, 0x2e, 0xde, 0x00, 0x20, 0xeb, 0x15,
  0x21, 0xf0, 0xdf, 0x26, 0xed, 0x2c, 0x0d, 0x28, 0xff, 0x24, 0xe0, 0xfa,
  0x0e, 0x1a, 0x08, 0xde, 0x12, 0xf6, 0x0b, 0xed, 0xdd, 0xde, 0x11, 0x2c,
  0xfc, 0x0d, 0xe3, 0x0e, 0xe0, 0x2a, 0xcc, 0x0e, 0xfa, 0xe6, 0xe9, 0xfa,
  0xf9, 0x06, 0x07, 0xd2, 0xf0, 0xd0, 0xc9, 0x0b, 0x02, 0x2a, 0x06, 0xec,
  0xf8, 0x00, 0xe6, 0x30, 0x01, 0xf7, 0x0d, 0x24, 0x26, 0xdc, 0xeb, 0xde,
  0x2f, 0x1d, 0x06, 0x11, 0xff, 0xe0, 0x1e, 0x1e, 0x25, 0x29, 0xfa, 0x1f,
  0xf4, 0xdf, 0x21, 0x00, 0x07, 0xe2, 0x1b, 0x2d, 0xf6, 0x25, 0x23, 0xf4,
  0x2c, 0x04, 0x19, 0xe5, 0x30, 0xf1, 0x05, 0xf7, 0xf4, 0xf9, 0xd4, 0xe9,
  0x09, 0xef, 0x09, 0x14, 0x02, 0xda, 0xc8, 0x03, 0xd8, 0xf4, 0xdb, 0x19,
  0xf6, 0x01, 0x27, 0xe6, 0xf7, 0xf1, 0x13, 0xf4, 0x01, 0xd1, 0xe8, 0x0a,
  0x05, 0xee, 0x18, 0x20, 0x12, 0x0a, 0x27, 0x0c, 0xe5, 0x17, 0xd2, 0xdb,
  0x28, 0x02, 0xd4, 0x28, 0x1c, 0x16, 0x0c, 0xdf, 0xe6, 0x21, 0xd8, 0xe6,
  0xfd, 0x16, 0xda, 0xf1, 0xf5, 0x0f, 0xd9, 0xdb, 0x00, 0x02, 0xe7, 0xe2,
  0x20, 0xf6, 0xe9, 0xf4, 0xef, 0x02, 0x17, 0xf1, 0x1a, 0xe4, 0x07, 0xeb,
  0xf1, 0x24, 0xd1, 0xe8, 0x1c, 0x0f, 0xd9, 0xfa, 0x20, 0xe5, 0x1c, 0x0e,
  0x02, 0xfd, 0x24, 0xe3, 0xfb, 0xde, 0xea, 0x03, 0xfc, 0xdd, 0x06, 0x05,
  0xe2, 0x12, 0x03, 0xfe, 0x0d, 0xd9, 0xde, 0xe0, 0x12, 0xe0, 0xea, 0x15,
  0x0f, 0xe0, 0xfa, 0xf1, 0x09, 0xed, 0xf5, 0x24, 0xf1, 0xe1, 0x22, 0xde,
  0xe9, 0x21, 0x0b, 0x23, 0x1c, 0x12, 0x06, 0x0f, 0xf2, 0x18, 0x10, 0x25,
  0x0a, 0xdc, 0x01, 0x24, 0x00, 0x19, 0x04, 0xd6, 0xe5, 0xdc, 0xf8, 0x1c,
  0xda, 0xf5, 0x1c, 0xfe, 0x21, 0x00, 0x1a, 0xfd, 0x29, 0xfc, 0xdc, 0x1f,
  0xdd, 0x19, 0xf3, 0xd8, 0xe6, 0x1c, 0x0d, 0xea, 0x05, 0x17, 0xeb, 0xf8,
  0x20, 0x00, 0xe2, 0xde, 0x05, 0x1f, 0x07, 0xfc, 0xe8, 0xff, 0x1b, 0xf8,
  0x01, 0xf4, 0x01, 0x11, 0xf8, 0x02, 0x14, 0xd8, 0xe7, 0xd4, 0xdc, 0xd0,
  0x0b, 0xe4, 0xd3, 0xcb, 0xc2, 0x1d, 0xce, 0xef, 0xd8, 0x16, 0xe6, 0xf4,
  0xe5, 0x0c, 0x01, 0x24, 0x07, 0x28, 0xec, 0x29, 0x09, 0x06, 0x18, 0xd7,
  0xea, 0xf5, 0xf1, 0x07, 0x19, 0x20, 0xf6, 0x02, 0x21, 0x1b, 0xec, 0xe0,
  0xdc, 0x0e, 0x21, 0x02, 0xf8, 0xdf, 0xd6, 0xe2, 0xfc, 0x15, 0xe8, 0xd7,
  0xf9, 0x0a, 0x1d, 0x16, 0xd5, 0xf6, 0x0f, 0xe7, 0xea, 0x18, 0x01, 0xef,
  0x1b, 0xfb, 0x12, 0xfa, 0x33, 0xe0, 0x01, 0x02, 0x2c, 0xe6, 0xe8, 0x1b,
  0xf6, 0x33, 0x0a, 0xe0, 0xf9, 0xe9, 0xdc, 0xd9, 0xea, 0x0a, 0x18, 0x24,
  0x17, 0x03, 0xf8, 0x1c, 0xea, 0xe6, 0x0a, 0x17, 0x01, 0x02, 0x22, 0xfe,
  0xee, 0x0d, 0x07, 0x13, 0x27, 0xfe, 0x10, 0x13, 0xeb, 0xdf, 0x1c, 0xdb,
  0x0b, 0xfb, 0xf9, 0x11, 0x17, 0x23, 0xe0, 0xec, 0xe2, 0x38, 0xe4, 0x12,
  0x23, 0x0c, 0x1e, 0x10, 0xf6, 0xf4, 0xf8, 0xd8, 0x15, 0xf5, 0x02, 0xfd,
  0x0b, 0xd4, 0xef, 0xd2, 0x04, 0x23, 0x22, 0x1a, 0x1b, 0x05, 0x06, 0xe9,
  0xfa, 0xdd, 0x22, 0xd7, 0xf4, 0x0e, 0xd6, 0xfe, 0xf9, 0xe4, 0xf8, 0xfe,
  0xf9, 0x27, 0xf1, 0xf5, 0x0d, 0xe2, 0xde, 0xee, 0x08, 0xe7, 0xf6, 0xf2,
  0xdd, 0x1d, 0xf4, 0xf3, 0x1b, 0x29, 0xe8, 0xe1, 0x22, 0xe1, 0xeb, 0x0f,
  0x01, 0x2e, 0x1d, 0x01, 0xfb, 0x09, 0xe8, 0x0f, 0xdc, 0x1d, 0xf0, 0xd4,
  0x11, 0xe0, 0x0f, 0x10, 0x23, 0xd9, 0xeb, 0xd3, 0xf7, 0x17, 0xf5, 0xda,
  0xfd, 0xec, 0x03, 0xf6, 0xf3, 0xf5, 0x1e, 0x1e, 0xe5, 0xf5, 0x09, 0x22,
  0x1c, 0xe4, 0xfa, 0x1e, 0x0c, 0x18, 0xf3, 0xe2, 0xf6, 0xf3, 0xe1, 0x1a,
  0xd7, 0x1b, 0xe6, 0xef, 0xd7, 0x22, 0xfc, 0x1f, 0xf6, 0x2b, 0xd6, 0xdd,
  0xd9, 0xfe, 0xea, 0xf8, 0x1b, 0x0a, 0x11, 0x26, 0xde, 0xf0, 0x02, 0xed,
  0x2c, 0xe9, 0x31, 0x0b, 0xfc, 0x07, 0x0f, 0xf1, 0x0d, 0x13, 0xef, 0x1b,
  0x24, 0x30, 0xf1, 0x0c, 0xfa, 0xf2, 0xdb, 0xe3, 0xd5, 0x01, 0x07, 0x21,
  0xde, 0xd4, 0xf9, 0x1d, 0x1f, 0xe2, 0x23, 0xe2, 0xf0, 0x16, 0xe5, 0xec,
  0xf3, 0x0f, 0xd7, 0x1f, 0xdf, 0xe9, 0xff, 0xf1, 0x19, 0xf5, 0xda, 0x14,
  0xeb, 0xd9, 0x1c, 0x0c, 0x07, 0xf9, 0x0e, 0xf6, 0xeb, 0x04, 0xe1, 0xd5,
  0xf2, 0x14, 0x0f, 0x14, 0xf2, 0xe2, 0xe0, 0xe4, 0x1b, 0x06, 0x14, 0xf6,
  0xdb, 0xf2, 0x1a, 0xfd, 0x0c, 0x2d, 0xed, 0x17, 0xf3, 0xfc, 0x2e, 0xee,
  0x1b, 0xdd, 0xf3, 0xee, 0x0f, 0x0e, 0xeb, 0x21, 0xe7, 0xf6, 0xf8, 0x0b,
  0xdf, 0xe6, 0x23, 0x04, 0xe2, 0x0c, 0x16, 0x2b, 0x18, 0x1f, 0x26, 0xfc,
  0xeb, 0xea, 0xe6, 0xf7, 0xfd, 0x04, 0x11, 0x0c, 0x2e, 0x0c, 0x14, 0xdb,
  0xfb, 0x0c, 0x2c, 0xe7, 0xe6, 0x02, 0xf6, 0xf1, 0xe5, 0xe4, 0xf8, 0x22,
  0xdb, 0xf8, 0x07, 0xef, 0x05, 0x0b, 0xf1, 0xff, 0x0d, 0x0a, 0x2a, 0x0d,
  0x17, 0x09, 0x21, 0xf1, 0x2c, 0xf1, 0x0a, 0x02, 0x05, 0x0d, 0xf0, 0xfe,
  0xf6, 0xff, 0x27, 0xf6, 0x04, 0x2a, 0x27, 0x23, 0xe2, 0x29, 0xdf, 0xf6,
  0x17, 0x0b, 0xdb, 0x1b, 0x0b, 0x29, 0x1a, 0x1c, 0x27, 0xe0, 0x0e, 0x08,
  0x26, 0x1b, 0xe4, 0x00, 0xf9, 0xe5, 0xdf, 0x11, 0xf9, 0xdf, 0x2e, 0xdd,
  0xf4, 0xd4, 0x10, 0xea, 0x04, 0x06, 0x03, 0xec, 0xea, 0xe8, 0x23, 0x05,
  0xe0, 0x18, 0xf0, 0x00, 0xf2, 0x21, 0xe7, 0xf7, 0xfb, 0xe1, 0x2f, 0x08,
  0xdc, 0xf4, 0x06, 0xde, 0xfa, 0x21, 0xed, 0xef, 0x2e, 0xeb, 0x24, 0x2c,
  0xfb, 0x12, 0x14, 0x1d, 0xdf, 0x0e, 0x06, 0x0c, 0x05, 0xfc, 0x02, 0xed,
  0xfb, 0x0f, 0x29, 0xde, 0x04, 0x2b, 0x22, 0x1c, 0x1d, 0xe2, 0xec, 0x0e,
  0xe7, 0x03, 0xfe, 0xdd, 0x16, 0xf1, 0x05, 0x14, 0x00, 0xde, 0x2a, 0x23,
  0xf8, 0x2d, 0x09, 0x09, 0x08, 0x29, 0x06, 0x0b, 0xf8, 0xdf, 0xf5, 0x08,
  0x2e, 0x02, 0x0e, 0x05, 0xe2, 0x20, 0x0b, 0x04, 0xf8, 0x16, 0x1a, 0x11,
  0xf2, 0xf4, 0xf6, 0xf8, 0xf1, 0xdf, 0xde, 0x1f, 0xf1, 0xec, 0xdc, 0x1c,
  0x1d, 0xfb, 0xe0, 0xea, 0xef, 0xeb, 0xee, 0xde, 0x1d, 0xfc, 0x01, 0x04,
  0x08, 0x2c, 0xe9, 0xf0, 0xdc, 0x1a, 0xea, 0xea, 0x22, 0xf1, 0xf8, 0x20,
  0x0e, 0x19, 0x19, 0xff, 0xff, 0x1a, 0x00, 0xdf, 0xde, 0x16, 0x0f, 0x0c,
  0x21, 0x04, 0xe9, 0xeb, 0xec, 0x0b, 0xde, 0x27, 0xe8, 0x14, 0x1a, 0x02,
  0xfe, 0xf9, 0xd7, 0xeb, 0x21, 0xfd, 0x18, 0xe8, 0xee, 0x27, 0x0e, 0xfd,
  0x15, 0x13, 0xde, 0xe0, 0x0d, 0x1e, 0xf9, 0x0a, 0x11, 0xfb, 0x03, 0x1e,
  0x23, 0x12, 0x06, 0x05, 0xfb, 0xf5, 0xf6, 0xd9, 0xdd, 0x28, 0xda, 0xd9,
  0xec, 0xfe, 0xfd, 0x08, 0xf3, 0xfe, 0x27, 0x1b, 0x02, 0x20, 0xda, 0xdd,
  0xd7, 0x0b, 0x21, 0xee, 0x1d, 0x23, 0x04, 0xea, 0xdc, 0x28, 0x08, 0xdd,
  0xf4, 0x19, 0xef, 0x21, 0xf7, 0x2b, 0x13, 0x0e, 0x15, 0x22, 0x25, 0x0c,
  0x0b, 0xf0, 0x1d, 0x08, 0xfa, 0x0a, 0x1f, 0x25, 0xdc, 0x10, 0x06, 0x0e,
  0xea, 0xe6, 0x10, 0x09, 0xef, 0x28, 0xeb, 0xee, 0xdf, 0x2e, 0x29, 0x26,
  0xe4, 0xf0, 0x05, 0xda, 0xe3, 0x20, 0xe9, 0x1b, 0xe2, 0xdb, 0xdb, 0x03,
  0x04, 0x00, 0x08, 0xeb, 0x16, 0x1f, 0x22, 0x21, 0xdc, 0x04, 0xf0, 0x04,
  0x00, 0xfd, 0xec, 0xdc, 0xfb, 0x08, 0x06, 0xe3, 0xee, 0xe2, 0x0f, 0x2a,
  0xf2, 0xe4, 0x00, 0x0e, 0x18, 0xe0, 0x25, 0x1e, 0x21, 0x28, 0x11, 0x2c,
  0x02, 0x0b, 0x2b, 0x21, 0xf1, 0x1e, 0x24, 0xf5, 0x27, 0xf4, 0x11, 0xe5,
  0xfa, 0xf9, 0xea, 0xde, 0x1b, 0xf9, 0x07, 0x03, 0xee, 0x01, 0x13, 0xf7,
  0x23, 0xe8, 0x24, 0x2f, 0x1b, 0xfa, 0x05, 0x1f, 0x10, 0xfd, 0x04, 0x09,
  0x24, 0x1c, 0xd8, 0x17, 0x26, 0xe7, 0xfb, 0x08, 0xeb, 0x29, 0x19, 0x08,
  0x10, 0x21, 0xfc, 0xe1, 0x15, 0x01, 0xd9, 0xef, 0xf9, 0x03, 0x12, 0xfc,
  0x23, 0x14, 0x20, 0x0b, 0x03, 0xdd, 0x29, 0x0f, 0x1b, 0xf2, 0xfb, 0xe9,
  0x2a, 0xf5, 0x23, 0xdb, 0x2c, 0xfa, 0x16, 0xe5, 0xed, 0x0e, 0x0c, 0xfa,
  0x00, 0x12, 0xd8, 0x1d, 0x05, 0xce, 0xd3, 0xf6, 0xcd, 0x12, 0xf0, 0x1f,
  0xde, 0xe3, 0xf5, 0x21, 0xec, 0xef, 0x08, 0xdd, 0x1e, 0x16, 0x24, 0xf1,
  0x25, 0x0c, 0x15, 0x23, 0xe4, 0xe2, 0xfc, 0xda, 0xf5, 0xec, 0x03, 0xef,
  0xf8, 0x11, 0x01, 0x07, 0x0e, 0xec, 0xdb, 0xeb, 0xd1, 0xef, 0x04, 0xdc,
  0x0a, 0xf9, 0x13, 0xd6, 0xdb, 0x1f, 0x11, 0xec, 0xea, 0x2e, 0x23, 0xf5,
  0x03, 0xe9, 0xfd, 0xf1, 0xff, 0xf6, 0xd8, 0xe0, 0x0f, 0x0b, 0xcc, 0x05,
  0xde, 0x1e, 0xf8, 0x1f, 0xed, 0x04, 0xf0, 0xda, 0x04, 0x2b, 0xfd, 0x08,
  0x08, 0xde, 0x10, 0xdf, 0xfe, 0xe6, 0x0c, 0x0b, 0xfa, 0x1d, 0x0e, 0x16,
  0x1c, 0xef, 0x1c, 0xf0, 0x24, 0xd4, 0xea, 0x20, 0x1a, 0xd6, 0xda, 0xd8,
  0x1e, 0x20, 0xed, 0x0c, 0xff, 0x04, 0x17, 0xde, 0xeb, 0xd7, 0xea, 0xef,
  0xe7, 0x10, 0x0f, 0xff, 0x18, 0x03, 0xd4, 0xe6, 0x02, 0xde, 0xe0, 0xd1,
  0xeb, 0x10, 0xfa, 0x0a, 0x00, 0xe3, 0x0d, 0xf3, 0x17, 0x04, 0xd3, 0x05,
  0xeb, 0x19, 0x0c, 0x0f, 0xf2, 0x24, 0xfe, 0xe5, 0xe5, 0x07, 0xd5, 0xdd,
  0xed, 0xdc, 0x02, 0xdf, 0xd2, 0x10, 0x08, 0xf0, 0xe8, 0xdb, 0x17, 0xe3,
  0x1a, 0xd6, 0xe6, 0x0b, 0xe6, 0xd7, 0xd3, 0x07, 0xd4, 0xdd, 0xe4, 0x26,
  0x15, 0xd6, 0xf7, 0xed, 0x20, 0xcd, 0x0a, 0xdc, 0xea, 0xfc, 0x03, 0x0b,
  0xef, 0xff, 0xf7, 0x0a, 0xd5, 0xea, 0x09, 0xde, 0xf2, 0x25, 0xd0, 0xd9,
  0x06, 0xce, 0xef, 0xc6, 0xde, 0x11, 0xf7, 0xf9, 0x17, 0x17, 0x09, 0xed,
  0x07, 0x09, 0xdb, 0xfd, 0xe5, 0x16, 0x24, 0x03, 0x13, 0xf3, 0xf1, 0xfb,
  0xdd, 0xda, 0x03, 0x14, 0xd2, 0xf7, 0xed, 0x0e, 0xfa, 0x0d, 0xd6, 0xe6,
  0xdb, 0xdc, 0xd5, 0xd5, 0xed, 0xf1, 0xfb, 0xf5, 0xe2, 0xde, 0x1d, 0x04,
  0x10, 0xf8, 0x14, 0xf2, 0x33, 0x12, 0xf1, 0xe5, 0xf3, 0x04, 0x20, 0x29,
  0x0a, 0xdd, 0x04, 0x0e, 0x18, 0x3a, 0x25, 0x32, 0x2e, 0xeb, 0xe5, 0x26,
  0x1b, 0xeb, 0xe6, 0x23, 0x01, 0x1b, 0xdf, 0xf1, 0x0b, 0x2e, 0x26, 0x09,
  0xf2, 0xf6, 0xe1, 0x0c, 0xe2, 0x26, 0xed, 0x2d, 0x0d, 0x2c, 0x0c, 0xe7,
  0xe5, 0xed, 0x15, 0x0b, 0x0f, 0x0e, 0x08, 0xdd, 0x0b, 0xdf, 0x0f, 0xe4,
  0xf5, 0x4e, 0x04, 0x11, 0x2c, 0x12, 0xf3, 0x1b, 0xf3, 0x1f, 0x14, 0x0c,
  0xe3, 0x1e, 0x08, 0xe6, 0x11, 0xf4, 0x0a, 0x16, 0x22, 0xf8, 0x10, 0xdc,
  0xf9, 0xf2, 0xfe, 0x11, 0x0a, 0x02, 0x24, 0xf3, 0x09, 0x1d, 0xe3, 0xff,
  0x0a, 0xf2, 0x0a, 0xf1, 0x22, 0x0e, 0x00, 0x04, 0xdf, 0x11, 0x12, 0x19,
  0xed, 0x10, 0x05, 0x30, 0x0c, 0xf0, 0x0e, 0xe3, 0x02, 0xec, 0x05, 0x15,
  0x1f, 0xf1, 0x01, 0xf2, 0x1f, 0xfd, 0x2e, 0x2f, 0x0c, 0xfa, 0x2b, 0x1b,
  0xe5, 0x1f, 0xda, 0x07, 0x1a, 0x00, 0xfd, 0xfd, 0xf6, 0xdb, 0x2f, 0xf5,
  0xf1, 0x24, 0xfa, 0xe6, 0x29, 0xe7, 0xe7, 0xf2, 0xf4, 0x29, 0x2f, 0x0f,
  0xeb, 0xf1, 0xea, 0xeb, 0x2f, 0xf8, 0xf7, 0x00, 0x30, 0x2d, 0x19, 0xe3,
  0xfc, 0x08, 0xfe, 0xfd, 0xe0, 0x11, 0xe8, 0x1a, 0x0e, 0xe8, 0xdc, 0xf1,
  0x24, 0xe1, 0x2c, 0xef, 0x2a, 0x08, 0xd5, 0xea, 0xf3, 0x25, 0x08, 0x2f,
  0xe5, 0xfb, 0x20, 0x1f, 0x48, 0xf7, 0xfa, 0x0c, 0xfa, 0x1e, 0x07, 0x29,
  0x01, 0x11, 0x2e, 0x13, 0x1d, 0x00, 0xfd, 0x16, 0x16, 0xf4, 0x0d, 0x24,
  0xed, 0xe7, 0x2c, 0x0d, 0x17, 0xe6, 0x23, 0xea, 0x12, 0xe7, 0xe6, 0x1f,
  0x0c, 0xf7, 0x31, 0xf4, 0x23, 0x23, 0xfe, 0x01, 0x2e, 0xfe, 0xec, 0xf8,
  0x08, 0x2e, 0x09, 0x31, 0x04, 0x03, 0x07, 0x0d, 0x2e, 0xe0, 0x14, 0x1b,
  0xfb, 0x08, 0xf5, 0x0c, 0x25, 0xff, 0xee, 0x1e, 0x23, 0xef, 0xef, 0x0f,
  0x09, 0x14, 0xd1, 0xf6, 0x02, 0xff, 0x0c, 0x11, 0x1d, 0x06, 0xea, 0xed,
  0x0c, 0xef, 0xe7, 0xfb, 0xe4, 0x15, 0x0a, 0x0e, 0x0c, 0x08, 0x10, 0x1a,
  0xe3, 0x14, 0xdc, 0x05, 0x0d, 0x11, 0xdd, 0x07, 0xe5, 0xe3, 0xea, 0xfd,
  0x0f, 0x1e, 0x28, 0x05, 0x02, 0xdb, 0x0d, 0x1d, 0xfc, 0xdb, 0xeb, 0x22,
  0xef, 0x1c, 0xf2, 0x08, 0x06, 0xed, 0x28, 0xde, 0x22, 0xfe, 0xfa, 0xfd,
  0x1d, 0x0c, 0x17, 0xff, 0xe5, 0x04, 0x0d, 0x06, 0xdd, 0x1b, 0xf8, 0x07,
  0x19, 0x0a, 0x09, 0xef, 0x29, 0xd7, 0x17, 0x11, 0xea, 0xd9, 0x14, 0x00,
  0xef, 0x23, 0xf4, 0xe6, 0x23, 0xf7, 0x02, 0x21, 0x21, 0x1e, 0x07, 0xf3,
  0x0f, 0x12, 0x04, 0xdf, 0xfe, 0xed, 0xe1, 0x22, 0x28, 0xe0, 0x28, 0xf3,
  0xf7, 0x05, 0xfe, 0x07, 0x17, 0x15, 0x07, 0x1b, 0x00, 0x27, 0x29, 0x07,
  0xf2, 0x23, 0x1d, 0x11, 0xf9, 0xdf, 0xfc, 0x16, 0xe0, 0xe3, 0x1a, 0x12,
  0xd5, 0xe3, 0x0a, 0xed, 0x16, 0xdf, 0xf0, 0xd3, 0xde, 0x02, 0x07, 0xdd,
  0xde, 0x1d, 0xe6, 0x00, 0x13, 0x17, 0x10, 0x22, 0xdc, 0x00, 0x18, 0xf5,
  0xd7, 0xfa, 0x16, 0x26, 0xf4, 0xe9, 0xe7, 0xe7, 0x1c, 0xfb, 0x28, 0x17,
  0xdf, 0xec, 0xe3, 0x27, 0xf2, 0xfa, 0x21, 0x14, 0xeb, 0x24, 0x06, 0xe3,
  0xf4, 0xe7, 0xea, 0xe2, 0x13, 0x2a, 0xe8, 0x14, 0xd2, 0x01, 0x07, 0xd1,
  0x07, 0x26, 0x23, 0xf1, 0xe0, 0xd5, 0x06, 0xdd, 0x0b, 0xf5, 0x0b, 0x10,
  0x01, 0xe1, 0xef, 0x1a, 0x00, 0x13, 0xe9, 0x0e, 0xf6, 0xe9, 0x25, 0x07,
  0xf7, 0x11, 0xd8, 0x21, 0xdf, 0x1c, 0xd7, 0xdf, 0x0d, 0x1c, 0xef, 0xf4,
  0xe0, 0x28, 0x0f, 0xe1, 0xe3, 0x23, 0x1d, 0x0a, 0xe0, 0xe7, 0x17, 0xfd,
  0xe7, 0x08, 0xd8, 0x06, 0x11, 0x1d, 0x0a, 0x19, 0x07, 0xf0, 0xe7, 0x18,
  0xf0, 0xf4, 0x1c, 0x0e, 0xfa, 0xeb, 0x28, 0x1f, 0x03, 0x03, 0x20, 0x00,
  0x26, 0x08, 0xf3, 0x19, 0x0b, 0x21, 0x1a, 0x2e, 0x06, 0x1e, 0xfe, 0xe4,
  0xed, 0xf0, 0x2d, 0x0a, 0xf0, 0x28, 0x24, 0x22, 0x1e, 0x0e, 0x23, 0xe8,
  0x32, 0x10, 0x12, 0xf8, 0x0c, 0xf5, 0xf4, 0xfe, 0x04, 0xeb, 0x0e, 0xf4,
  0x22, 0xe7, 0x0c, 0x20, 0x1a, 0x14, 0xe6, 0x18, 0x07, 0xe7, 0x03, 0xf2,
  0xec, 0xf1, 0x13, 0xe8, 0xd4, 0xec, 0x03, 0x01, 0x0c, 0x0f, 0x1d, 0x0d,
  0xea, 0xed, 0x0b, 0xd6, 0x11, 0xdd, 0x25, 0x0a, 0xf5, 0x21, 0xe9, 0x16,
  0xe9, 0x31, 0xde, 0xef, 0x1e, 0xe7, 0x1e, 0xfb, 0x20, 0x2e, 0x00, 0x16,
  0xfd, 0x28, 0xf4, 0x0c, 0x17, 0xef, 0x16, 0xe0, 0x2c, 0x05, 0x22, 0x21,
  0x24, 0xf0, 0x00, 0xe8, 0xf0, 0xec, 0x0e, 0x13, 0xf1, 0x23, 0x1d, 0x2c,
  0x1d, 0xea, 0xe1, 0x24, 0xf3, 0x25, 0x32, 0xfa, 0xf7, 0xe6, 0xe6, 0x11,
  0xd1, 0x17, 0xfb, 0x1d, 0x1a, 0xd2, 0xee, 0xd3, 0xf9, 0xea, 0xdd, 0x13,
  0xe4, 0x19, 0xf7, 0xe0, 0xf9, 0x27, 0x16, 0xf0, 0xff, 0x20, 0x0b, 0x1d,
  0xf9, 0x0b, 0x28, 0xe9, 0x1f, 0xfa, 0x2e, 0x2f, 0xe9, 0x09, 0xeb, 0x0d,
  0xe7, 0x0b, 0x21, 0x2d, 0x0b, 0xf8, 0x0c, 0xe6, 0xf9, 0xfb, 0x12, 0x14,
  0x14, 0x2b, 0xea, 0xe0, 0x1f, 0xe5, 0xef, 0xeb, 0x09, 0x03, 0x22, 0x0f,
  0xdb, 0x0d, 0xd8, 0xdb, 0xe1, 0xe8, 0x25, 0xf9, 0xf6, 0x01, 0xd2, 0xeb,
  0x1d, 0xf7, 0xfc, 0x18, 0x32, 0x1e, 0x0a, 0x15, 0xff, 0x32, 0x24, 0x28,
  0xeb, 0xf2, 0xf0, 0x18, 0xea, 0xff, 0x32, 0x08, 0x29, 0x0e, 0x2d, 0xfa,
  0xde, 0x16, 0x1f, 0xfa, 0x2a, 0xed, 0x21, 0x24, 0x0d, 0x2a, 0x14, 0xfd,
  0xf9, 0xf3, 0x11, 0x2f, 0x0f, 0xf5, 0xdf, 0x26, 0x03, 0x05, 0x0d, 0xe5,
  0x25, 0x0a, 0xed, 0xf0, 0xd5, 0xf7, 0x19, 0x00, 0x0d, 0xd3, 0xdc, 0xdd,
  0xd4, 0x26, 0xcd, 0x14, 0xeb, 0x04, 0xdd, 0x1e, 0xe6, 0xd7, 0xeb, 0xd9,
  0x08, 0x15, 0xe7, 0xdf, 0x1a, 0xe3, 0xdc, 0xf2, 0x1a, 0xeb, 0x15, 0x1b,
  0x17, 0xe4, 0x20, 0xf5, 0xd9, 0xd5, 0x1c, 0xdd, 0xde, 0x09, 0xf6, 0x12,
  0xfa, 0xf7, 0x1c, 0xe7, 0x1b, 0x12, 0x09, 0xde, 0x13, 0xf6, 0x19, 0x07,
  0x01, 0x81, 0x1a, 0xfb, 0x11, 0x1d, 0xf9, 0x14, 0x02, 0xe3, 0x1a, 0x02,
  0xdf, 0xee, 0xea, 0x27, 0x0b, 0xd3, 0xe6, 0x1f, 0x12, 0xff, 0x03, 0xf7,
  0x16, 0xd9, 0x14, 0x22, 0x07, 0x1d, 0xea, 0x0a, 0x22, 0xd5, 0xe9, 0xe0,
  0x03, 0xf6, 0x0e, 0x0a, 0xf9, 0x11, 0x15, 0x21, 0x15, 0x12, 0xee, 0xfc,
  0x14, 0x03, 0xf1, 0xe4, 0xee, 0x1c, 0xd1, 0xd8, 0xf6, 0x0a, 0x18, 0x15,
  0x24, 0xec, 0xfd, 0x1b, 0x0a, 0x14, 0x06, 0xdd, 0x1f, 0x20, 0xe4, 0x19,
  0xda, 0x08, 0x22, 0xf5, 0x0d, 0x11, 0x10, 0x21, 0xe5, 0xf1, 0xf1, 0x20,
  0x0c, 0xe5, 0xec, 0x0e, 0xd1, 0xef, 0x19, 0x13, 0xf1, 0xdc, 0xfd, 0x06,
  0xd2, 0x12, 0xe7, 0x06, 0x03, 0xd8, 0xf1, 0xf1, 0x01, 0xde, 0x0c, 0xfe,
  0xfc, 0x23, 0x1d, 0xd9, 0xec, 0xe1, 0x1b, 0xe7, 0xe6, 0xf8, 0xd2, 0x22,
  0xda, 0x1b, 0xf5, 0xf3, 0x16, 0x22, 0xe7, 0xec, 0x19, 0xf4, 0x25, 0xde,
  0xfe, 0x0a, 0x19, 0x24, 0xe2, 0x1d, 0xd7, 0xbc, 0x04, 0xf5, 0x04, 0xda,
  0xd2, 0xfd, 0xd6, 0xf0, 0xd0, 0xd1, 0xf4, 0xcc, 0x0a, 0x1c, 0x14, 0xf8,
  0xeb, 0xd6, 0x05, 0x1e, 0x05, 0x18, 0xf2, 0xdd, 0xff, 0x0b, 0xef, 0xfc,
  0x08, 0xf4, 0xd8, 0x07, 0x19, 0x21, 0xde, 0xd4, 0xe4, 0x0d, 0xd7, 0xe0,
  0x23, 0xeb, 0xdf, 0xd5, 0xeb, 0x18, 0xd3, 0x01, 0x01, 0x03, 0xfd, 0x08,
  0xd5, 0xff, 0x17, 0x06, 0x11, 0xeb, 0x24, 0xf6, 0xdb, 0x17, 0xf6, 0x1e,
  0x09, 0xf1, 0xf9, 0x1e, 0x26, 0x23, 0x25, 0x05, 0x0e, 0x46, 0x21, 0xfa,
  0xe0, 0xd8, 0xe9, 0xeb, 0x18, 0x0a, 0xeb, 0x22, 0xdd, 0x1e, 0x0e, 0xee,
  0xd7, 0xdc, 0x1e, 0xf3, 0xed, 0xfb, 0x17, 0xf3, 0x0a, 0xe7, 0x2a, 0x00,
  0xe7, 0x1c, 0xd8, 0x1c, 0x23, 0xd8, 0x0f, 0x0a, 0xf5, 0x15, 0xf7, 0x11,
  0x0a, 0xe9, 0xf1, 0xd3, 0x17, 0x68, 0x1c, 0xe6, 0xed, 0xe1, 0x09, 0xff,
  0xf4, 0x38, 0xed, 0xe1, 0xf5, 0xf7, 0xe4, 0x15, 0x14, 0x11, 0x19, 0xfc,
  0xdc, 0xf7, 0x15, 0xee, 0xd7, 0xff, 0xe3, 0xe1, 0x0f, 0xe2, 0xd6, 0xd9,
  0xd4, 0xd2, 0xef, 0x0f, 0x03, 0x07, 0xd9, 0xf6, 0xe2, 0x15, 0x15, 0x02,
  0x1d, 0xe8, 0xe3, 0x18, 0xf8, 0xf2, 0xe8, 0xff, 0xfb, 0xef, 0xf1, 0x0a,
  0xd5, 0x06, 0xf0, 0x28, 0x1c, 0xd6, 0xe0, 0xdd, 0xf0, 0x2e, 0x05, 0x21,
  0xf2, 0x0c, 0xf0, 0x0e, 0xd4, 0xda, 0xf4, 0xda, 0xf0, 0x13, 0x0c, 0xeb,
  0x1f, 0xde, 0xf2, 0x11, 0xd9, 0xf6, 0x1d, 0xda, 0xef, 0x1f, 0xf6, 0xe2,
  0x22, 0x01, 0x03, 0x21, 0xdd, 0xd5, 0x07, 0x1e, 0xfc, 0xeb, 0xe4, 0x16,
  0x13, 0x20, 0x25, 0xd5, 0x1b, 0x02, 0x02, 0xfc, 0xff, 0x08, 0xe2, 0xd9,
  0xef, 0x0d, 0x0b, 0x1c, 0x1a, 0xdd, 0x1c, 0xff, 0x21, 0xf9, 0x08, 0xf3,
  0xe7, 0x15, 0x24, 0x12, 0xfe, 0x1c, 0xdc, 0xf1, 0x03, 0xd9, 0x2a, 0x0b,
  0x01, 0xfb, 0x22, 0x16, 0x18, 0x07, 0x34, 0xef, 0xda, 0x3b, 0x03, 0x06,
  0x0a, 0x20, 0xe0, 0xeb, 0xf7, 0xf0, 0xde, 0xf6, 0x03, 0x06, 0xea, 0xf1,
  0x09, 0xdc, 0xd1, 0xd5, 0x04, 0xff, 0x02, 0x01, 0x15, 0xe0, 0xe9, 0xe6,
  0x0f, 0xff, 0xf5, 0x1d, 0xea, 0xfc, 0x1e, 0x02, 0x0f, 0x10, 0x05, 0x04,
  0xf5, 0xe1, 0xf0, 0x16, 0x1f, 0x16, 0xd8, 0xe4, 0xef, 0x15, 0xd2, 0xe6,
  0x0b, 0xe2, 0x18, 0x31, 0x38, 0x22, 0xfb, 0xe4, 0x19, 0xda, 0x00, 0xf4,
  0xf0, 0x2d, 0x31, 0x30, 0xf6, 0x2b, 0x24, 0x2d, 0x17, 0xf3, 0x1c, 0xf2,
  0xe4, 0xf1, 0x09, 0x22, 0x23, 0x08, 0xef, 0x22, 0xe1, 0x05, 0x0b, 0xe9,
  0x0c, 0xde, 0x07, 0xe6, 0x04, 0x21, 0x08, 0xe3, 0x0e, 0xeb, 0x15, 0xe7,
  0x23, 0xdd, 0x03, 0x2c, 0xe4, 0xef, 0xe0, 0x04, 0xfa, 0x2b, 0x02, 0xe9,
  0x25, 0xf4, 0x0b, 0xe1, 0x24, 0x05, 0xf3, 0x04, 0xe8, 0x24, 0x27, 0x02,
  0xea, 0x10, 0x0d, 0xff, 0x13, 0xe3, 0x18, 0x25, 0x06, 0xe2, 0x2a, 0xe1,
  0xe8, 0x1c, 0xde, 0xf9, 0x04, 0xe1, 0x27, 0xdf, 0x19, 0x0c, 0xfa, 0xec,
  0x17, 0xf6, 0x2b, 0xfd, 0x2b, 0x04, 0xea, 0x1e, 0xfb, 0xf7, 0x04, 0xf8,
  0x2d, 0xe3, 0xdf, 0x2e, 0x02, 0xe2, 0xea, 0x03, 0xf8, 0x10, 0xe2, 0x07,
  0xec, 0xfb, 0x10, 0x14, 0xfe, 0xdd, 0x2a, 0xdd, 0x16, 0x02, 0xf4, 0xdd,
  0x04, 0xe2, 0xe8, 0xe2, 0x04, 0x14, 0xff, 0x10, 0x04, 0x18, 0xf3, 0x03,
  0x10, 0x18, 0x1c, 0xf8, 0xf9, 0x01, 0x26, 0xef, 0x10, 0xfa, 0x25, 0x10,
  0xe0, 0xf9, 0x15, 0x22, 0xff, 0x05, 0xef, 0xfe, 0xf9, 0x2c, 0xef, 0xdc,
  0xf0, 0xec, 0xed, 0xf8, 0x22, 0xea, 0x0e, 0x1c, 0xe8, 0xf7, 0xdc, 0x21,
  0x25, 0xf8, 0x01, 0x11, 0x08, 0xdc, 0xef, 0x1e, 0x21, 0x28, 0x0e, 0xf5,
  0x16, 0xe2, 0x32, 0x0e, 0x31, 0xff, 0x01, 0x1b, 0x07, 0xfe, 0xec, 0x0e,
  0xfb, 0xfe, 0x08, 0x1c, 0xec, 0x15, 0xe9, 0x29, 0xe4, 0x11, 0x24, 0xe4,
  0x25, 0x17, 0x21, 0x2b, 0x21, 0xf8, 0x00, 0xfe, 0xeb, 0x06, 0x0a, 0x0f,
  0x26, 0x2c, 0x14, 0xe8, 0xe0, 0xf8, 0xe0, 0x28, 0xf4, 0x04, 0x0c, 0xe2,
  0xef, 0xf3, 0xff, 0x0b, 0x01, 0x25, 0x2b, 0xf5, 0xf7, 0x1d, 0x07, 0x26,
  0xe5, 0xe0, 0x20, 0x2e, 0x11, 0x1b, 0xfa, 0x25, 0x06, 0x02, 0x20, 0xe2,
  0x21, 0x15, 0x0e, 0xed, 0x17, 0xdc, 0x10, 0xf1, 0xee, 0xfa, 0xdc, 0x2a,
  0x12, 0x16, 0x04, 0xdd, 0x03, 0x11, 0xe6, 0xf3, 0x1a, 0xe2, 0xde, 0xf9,
  0x0d, 0xfe, 0xd8, 0x19, 0xdb, 0x10, 0xf4, 0xf3, 0xf2, 0xdc, 0xdf, 0x00,
  0x14, 0x0d, 0x0a, 0x05, 0x06, 0x02, 0xdf, 0xe6, 0x19, 0x25, 0x19, 0x0e,
  0x22, 0xf3, 0xff, 0x17, 0xe3, 0x0d, 0xd8, 0x07, 0xf0, 0xdb, 0x16, 0x23,
  0xda, 0xf4, 0x09, 0xe1, 0x1d, 0xd8, 0xfb, 0x03, 0xe7, 0xff, 0x27, 0x22,
  0x02, 0xe0, 0xea, 0x18, 0xe4, 0xdb, 0xf1, 0x1f, 0xde, 0xf0, 0xf0, 0x08,
  0x18, 0xf1, 0xe1, 0x05, 0x18, 0xdc, 0x25, 0xd8, 0xfb, 0xdd, 0x15, 0xfa,
  0xec, 0xda, 0x22, 0x29, 0xe7, 0xe4, 0x18, 0xd8, 0x1e, 0x11, 0xfb, 0xe4,
  0xe6, 0xf3, 0x06, 0x0f, 0x0e, 0xfa, 0xe4, 0xe2, 0x2a, 0xef, 0xf9, 0xf3,
  0x27, 0xfb, 0x1d, 0xda, 0x08, 0x0e, 0xf7, 0xe0, 0x0d, 0x1b, 0xe9, 0x01,
  0x0f, 0xff, 0x28, 0xd9, 0x24, 0xf2, 0x22, 0x0e, 0xf9, 0x1d, 0x08, 0xef,
  0xf0, 0xfa, 0xe0, 0x08, 0x18, 0x10, 0x0e, 0x22, 0x1f, 0x00, 0x2b, 0x09,
  0x0c, 0xf4, 0xdc, 0xe3, 0xf0, 0xdb, 0xdc, 0xe7, 0x12, 0x2a, 0x08, 0xda,
  0xf4, 0x20, 0x1b, 0xf3, 0x27, 0x15, 0x12, 0x27, 0x19, 0xde, 0xfc, 0xe6,
  0xfa, 0xfa, 0xf8, 0x08, 0x1d, 0x28, 0xfe, 0x1c, 0xfd, 0x02, 0xd1, 0xf5,
  0x18, 0x21, 0xe0, 0xcc, 0xf1, 0xff, 0x11, 0xe1, 0x1b, 0xe7, 0xf0, 0x11,
  0x0e, 0xec, 0xd7, 0x2b, 0x1a, 0xe9, 0x29, 0xdf, 0xff, 0xf1, 0xfb, 0xe3,
  0xf9, 0x1f, 0xec, 0xd9, 0xf7, 0x17, 0x21, 0xdb, 0x29, 0xef, 0x02, 0x27,
  0x28, 0xfa, 0xf9, 0x17, 0xe1, 0x16, 0x04, 0x26, 0xfa, 0xd9, 0x0f, 0xe5,
  0xf2, 0xf2, 0xf9, 0x2b, 0xf7, 0xea, 0xeb, 0x17, 0x34, 0x1a, 0x05, 0x20,
  0x15, 0x02, 0x24, 0xf7, 0x16, 0x17, 0x59, 0x29, 0x2b, 0x34, 0x31, 0x15,
  0x0c, 0xdc, 0x15, 0x29, 0xd9, 0x16, 0xea, 0xf2, 0x23, 0x03, 0x22, 0x09,
  0x18, 0xfb, 0x1d, 0x12, 0x26, 0x11, 0x15, 0x01, 0xdc, 0xda, 0xf0, 0xf6,
  0x00, 0xea, 0x29, 0xe2, 0x25, 0x07, 0xf5, 0xe2, 0x17, 0xf5, 0x0a, 0xe2,
  0xf4, 0x00, 0x22, 0x01, 0xf6, 0x63, 0xfb, 0x14, 0xf2, 0x10, 0x1d, 0x14,
  0x0e, 0x35, 0xde, 0xfb, 0x24, 0x1c, 0x02, 0x1a, 0x06, 0x26, 0xfc, 0x09,
  0x0d, 0x15, 0x2f, 0xff, 0xfa, 0x09, 0xed, 0xe4, 0x23, 0xf8, 0x26, 0xfd,
  0x16, 0x1e, 0xf9, 0xd7, 0x0a, 0x05, 0xf5, 0x1f, 0xf7, 0x25, 0xde, 0xd9,
  0x2a, 0xed, 0x1b, 0xf2, 0xe9, 0x16, 0x24, 0x03, 0x1d, 0x1f, 0x01, 0xed,
  0x28, 0x02, 0x15, 0xe8, 0x02, 0xd7, 0x08, 0xe5, 0xeb, 0x25, 0x19, 0xff,
  0xfc, 0xff, 0x16, 0xdc, 0x02, 0x01, 0x17, 0x01, 0xeb, 0xdd, 0xeb, 0xd5,
  0xde, 0x0c, 0x08, 0xe3, 0x27, 0xea, 0x0d, 0xd7, 0xf9, 0x22, 0xf1, 0xf2,
  0xe3, 0x18, 0xe5, 0xd7, 0x10, 0xdd, 0xdf, 0x0a, 0xf0, 0x1b, 0xd7, 0x07,
  0x1f, 0x1e, 0x23, 0x23, 0xf9, 0x00, 0xde, 0xf2, 0x0e, 0x21, 0xe6, 0x16,
  0x25, 0xf6, 0xdf, 0xe1, 0x1d, 0x1e, 0xfd, 0x1b, 0xdf, 0x09, 0x19, 0xf5,
  0xf2, 0x1b, 0xf2, 0xf0, 0xd8, 0x2a, 0xeb, 0x0e, 0x1e, 0xde, 0x3d, 0x45,
  0x16, 0x1a, 0x18, 0x49, 0x3c, 0x01, 0x17, 0x0e, 0xfd, 0x36, 0x19, 0x1c,
  0x03, 0x21, 0xee, 0xee, 0x21, 0xda, 0xfe, 0x19, 0xfd, 0x24, 0x0a, 0x0d,
  0xe1, 0x17, 0x0a, 0x0c, 0xe9, 0xe1, 0x10, 0xf0, 0xe3, 0xfe, 0xdf, 0xe4,
  0xef, 0x10, 0x00, 0xf4, 0x0d, 0x1e, 0x0e, 0xf1, 0x0f, 0xf1, 0x0f, 0xed,
  0xe0, 0x28, 0xe5, 0xe8, 0xe4, 0x14, 0x19, 0xe3, 0x1f, 0x29, 0x21, 0xda,
  0xe4, 0xe8, 0xff, 0xf8, 0x2f, 0x16, 0xe2, 0x07, 0xec, 0xdc, 0xf7, 0x2a,
  0x1b, 0x08, 0xf8, 0x17, 0x14, 0x23, 0x0e, 0xea, 0x1b, 0x1a, 0xe9, 0xdf,
  0x0b, 0xea, 0x14, 0xdd, 0x0a, 0xe8, 0x0f, 0x1a, 0xef, 0x18, 0x2c, 0x1d,
  0xdc, 0xe0, 0x2a, 0x00, 0x14, 0xf9, 0x27, 0x2a, 0x25, 0x06, 0x18, 0xee,
  0x05, 0xf6, 0xda, 0xf3, 0xe6, 0x0a, 0xe4, 0x11, 0x2e, 0x45, 0x01, 0x25,
  0xe0, 0xf8, 0xe9, 0x14, 0x17, 0xf3, 0xf6, 0x0e, 0x02, 0xe8, 0xf3, 0x19,
  0x16, 0x0f, 0x17, 0x03, 0x1f, 0x0a, 0xf8, 0x0e, 0xdd, 0x25, 0xe5, 0x19,
  0x17, 0xe2, 0x28, 0x16, 0x00, 0xef, 0x27, 0x1b, 0xdc, 0x22, 0x1c, 0x29,
  0xdf, 0x1c, 0x22, 0xe4, 0x24, 0xe3, 0x1f, 0x22, 0x1d, 0x15, 0xf9, 0xed,
  0x23, 0x16, 0x16, 0xfa, 0x2a, 0x0d, 0x23, 0x0a, 0xdc, 0x04, 0xec, 0x09,
  0xdd, 0xdf, 0x10, 0xe6, 0x08, 0xdf, 0x1e, 0xf6, 0x11, 0xec, 0x23, 0xe9,
  0x0b, 0x01, 0x1e, 0x25, 0x00, 0xfb, 0xe2, 0xea, 0xe5, 0xfb, 0xff, 0x06,
  0x26, 0x2a, 0x00, 0xe6, 0x03, 0x2c, 0xe3, 0x0a, 0xeb, 0x15, 0x10, 0xea,
  0xf8, 0xec, 0xdc, 0xe9, 0x17, 0xf1, 0x24, 0xf4, 0xf0, 0x1d, 0x00, 0x0e,
  0x20, 0x27, 0x14, 0xe1, 0xe3, 0x1d, 0xf7, 0xdd, 0x20, 0xf3, 0xf7, 0xd9,
  0x02, 0x15, 0x17, 0xe6, 0xe6, 0x0d, 0x1a, 0x08, 0x1a, 0x2d, 0xf5, 0x00,
  0xfd, 0xef, 0x01, 0x16, 0x09, 0x15, 0x20, 0x02, 0x0e, 0xdf, 0x23, 0xf5,
  0xe4, 0x10, 0x08, 0xfe, 0x08, 0xd9, 0xfb, 0x2c, 0xe5, 0x16, 0xe2, 0x19,
  0x00, 0xe4, 0xde, 0x15, 0x06, 0x18, 0x29, 0xe6, 0x20, 0x03, 0xe5, 0xf4,
  0x10, 0xfa, 0xfb, 0x1c, 0x05, 0x18, 0xfd, 0x27, 0x12, 0xfe, 0x1c, 0xef,
  0xe3, 0x14, 0x0d, 0x0b, 0x03, 0x27, 0xe5, 0xdc, 0x2b, 0xfb, 0x21, 0x1d,
  0x1e, 0xeb, 0x1f, 0xf0, 0x11, 0xe0, 0xe9, 0xe7, 0xed, 0xf3, 0xd9, 0xf6,
  0x20, 0xd8, 0xd2, 0xf0, 0xf3, 0x09, 0xf6, 0x08, 0x18, 0x03, 0x17, 0xfe,
  0xe1, 0xf2, 0x1e, 0x10, 0x17, 0xd4, 0xf5, 0x1e, 0xeb, 0xea, 0xd1, 0xd0,
  0xf4, 0xfc, 0xfc, 0xdb, 0xd8, 0xe1, 0xe8, 0x11, 0xda, 0x07, 0xd8, 0x16,
  0x1e, 0x05, 0x18, 0xe5, 0x19, 0xe3, 0x13, 0xe1, 0x09, 0xea, 0xe8, 0xfa,
  0xdf, 0xcf, 0x0b, 0xe2, 0x1c, 0x05, 0xdc, 0xd9, 0xe2, 0xda, 0xff, 0x01,
  0xd9, 0xfa, 0xeb, 0x09, 0xed, 0xd3, 0xc9, 0xe2, 0xe8, 0xdf, 0xcf, 0x1f,
  0xfa, 0x00, 0xf6, 0x07, 0xff, 0x12, 0xf8, 0x0b, 0xcf, 0xe1, 0x22, 0xf4,
  0x00, 0x15, 0xd4, 0xd8, 0xea, 0x27, 0x0a, 0xf6, 0x16, 0xee, 0xd4, 0x12,
  0xee, 0xed, 0x17, 0x07, 0xfd, 0x0d, 0xfc, 0xd8, 0x0e, 0x00, 0xfa, 0xec,
  0xd9, 0x1c, 0xe2, 0xf3, 0x19, 0xca, 0xf7, 0xed, 0x19, 0x1b, 0x19, 0xec,
  0xdd, 0xd6, 0x11, 0x18, 0x12, 0xd0, 0xf8, 0xfc, 0xe1, 0xfd, 0xe9, 0x17,
  0xc9, 0xe1, 0x01, 0xd8, 0x08, 0x1d, 0xf3, 0xd8, 0xf3, 0x14, 0x19, 0xda,
  0xf0, 0xf1, 0x02, 0x1e, 0x0f, 0xdf, 0xfd, 0xd3, 0xd6, 0xe4, 0x14, 0x18,
  0xf3, 0xed, 0xda, 0x19, 0x05, 0xd7, 0x03, 0xdc, 0xdd, 0xfb, 0x1e, 0xef,
  0xe3, 0xed, 0xd8, 0xdd, 0x18, 0xd3, 0xf7, 0xe5, 0xd6, 0xf8, 0x14, 0x06,
  0xdd, 0x20, 0x17, 0x08, 0xcd, 0xf5, 0xcf, 0xe6, 0x1a, 0xd4, 0xc3, 0x12,
  0x00, 0x23, 0xe6, 0xcb, 0x17, 0xea, 0xd0, 0x0f, 0x16, 0x1a, 0xf1, 0x03,
  0xf6, 0xe3, 0x19, 0x05, 0xf7, 0xed, 0x19, 0x00, 0x09, 0xe1, 0xdc, 0xdd,
  0x16, 0x23, 0x15, 0xd2, 0xff, 0xdc, 0xe0, 0xd6, 0xef, 0xe7, 0x07, 0xd6,
  0xfa, 0x23, 0xd5, 0x0a, 0x09, 0xdd, 0x11, 0xe1, 0xe5, 0x21, 0xd8, 0xd4,
  0x07, 0x1c, 0x19, 0x13, 0xdc, 0x14, 0x17, 0x21, 0x04, 0xe6, 0x2d, 0xee,
  0xe7, 0x11, 0xe2, 0x08, 0xea, 0x05, 0x16, 0xff, 0x0f, 0x12, 0xff, 0x17,
  0xf8, 0xf4, 0x01, 0xff, 0x08, 0x10, 0x27, 0xe6, 0x2c, 0x16, 0x32, 0x00,
  0xfc, 0x13, 0xf1, 0x21, 0x1f, 0xf9, 0x07, 0x15, 0x16, 0x24, 0xf8, 0x13,
  0xfc, 0xe3, 0x1e, 0xed, 0x08, 0x28, 0x1a, 0xfd, 0xf1, 0xea, 0x05, 0x2c,
  0x30, 0x18, 0x0d, 0x0f, 0x31, 0x06, 0x1a, 0xff, 0xe7, 0x22, 0x0f, 0xfa,
  0xec, 0x12, 0xd0, 0x03, 0x16, 0x0e, 0x0d, 0xd2, 0xe7, 0x0a, 0x16, 0x17,
  0xd5, 0xd7, 0x05, 0xd6, 0x29, 0x19, 0xea, 0x21, 0xe0, 0x0d, 0x07, 0xe8,
  0xe1, 0x0c, 0xe9, 0x0d, 0x0b, 0xfb, 0x04, 0xe0, 0x06, 0xed, 0xe1, 0xdf,
  0x22, 0x22, 0x1d, 0x13, 0xf1, 0xf6, 0x14, 0xed, 0x0a, 0x2f, 0x29, 0xf7,
  0xf0, 0x1f, 0xf4, 0x20, 0xed, 0x22, 0x1c, 0xef, 0x13, 0x2b, 0x24, 0x1d,
  0xf3, 0x0f, 0x24, 0xeb, 0xd0, 0xd2, 0x0f, 0xe3, 0x14, 0xd2, 0xfb, 0xd7,
  0xfe, 0x05, 0x11, 0x07, 0xf2, 0x05, 0x17, 0xd3, 0x12, 0x0f, 0xf0, 0xed,
  0x0f, 0x26, 0x09, 0x0c, 0x31, 0x26, 0x11, 0x1f, 0xe8, 0x2d, 0x2f, 0x24,
  0x29, 0x20, 0x26, 0x05, 0x14, 0x0c, 0x10, 0x16, 0x0c, 0x1d, 0x1d, 0xef,
  0x0b, 0xf7, 0xfa, 0x2e, 0x0d, 0xed, 0x10, 0x02, 0x28, 0x19, 0x23, 0xf8,
  0x31, 0xdf, 0x07, 0x14, 0xfd, 0xf5, 0x01, 0x2a, 0xf6, 0x01, 0x02, 0xf0,
  0x0a, 0x2e, 0x14, 0x1e, 0xe0, 0xf1, 0xd7, 0x2d, 0x0f, 0xe5, 0xeb, 0x17,
  0xf0, 0x19, 0x28, 0x03, 0xfb, 0x2c, 0xe9, 0x31, 0xfa, 0x0a, 0xfe, 0x2c,
  0xee, 0x08, 0xf5, 0xee, 0x29, 0x11, 0xf1, 0xef, 0x21, 0xf1, 0xf5, 0x28,
  0x1c, 0x03, 0x18, 0x02, 0xeb, 0x29, 0x17, 0x25, 0x1d, 0x28, 0xee, 0xe6,
  0x1f, 0x2f, 0xe0, 0x07, 0xf1, 0xe9, 0xf4, 0x07, 0xf5, 0xf9, 0x13, 0xee,
  0x06, 0xf6, 0xde, 0xdf, 0xf8, 0x1e, 0x15, 0x03, 0x04, 0x0a, 0xf8, 0xeb,
  0x2a, 0xee, 0x1b, 0xfc, 0xea, 0xea, 0x02, 0xed, 0xf5, 0x28, 0xe6, 0xde,
  0x1d, 0x14, 0xe7, 0x03, 0x10, 0xfb, 0x15, 0x1f, 0xe3, 0x09, 0xeb, 0xe1,
  0x0a, 0xf8, 0xe5, 0xed, 0x15, 0x26, 0x12, 0xdc, 0x2e, 0xe3, 0x28, 0xeb,
  0xea, 0x15, 0x2a, 0x01, 0x2d, 0xfe, 0x2d, 0x12, 0x10, 0xef, 0xf0, 0x09,
  0x00, 0xf9, 0x23, 0x1e, 0x0b, 0x2c, 0xe4, 0xf1, 0xf5, 0xd7, 0x02, 0x07,
  0xef, 0x07, 0xf2, 0xd9, 0xfd, 0xe7, 0xe9, 0x06, 0xe6, 0x25, 0x27, 0xde,
  0x25, 0x2c, 0x01, 0xe6, 0xe3, 0xff, 0x21, 0xf4, 0xed, 0x0f, 0x0e, 0x0d,
  0xe9, 0xdd, 0x05, 0xec, 0x1f, 0x0d, 0x2c, 0x27, 0x13, 0x22, 0xe3, 0xfe,
  0xf1, 0xf2, 0xe0, 0xee, 0x1a, 0x2e, 0xe7, 0xf1, 0x05, 0xf1, 0xe1, 0x28,
  0xfc, 0xf4, 0x1c, 0x07, 0x0e, 0x2d, 0x2e, 0x12, 0xee, 0x18, 0x22, 0xe9,
  0xef, 0x0d, 0xd8, 0x23, 0xd7, 0xe1, 0x22, 0x00, 0xe2, 0x0b, 0x01, 0x1e,
  0xde, 0x27, 0xfc, 0xfc, 0x1b, 0xf2, 0x0c, 0xe5, 0x20, 0xf4, 0x16, 0xe0,
  0xdf, 0xde, 0xe9, 0xde, 0x15, 0xe7, 0x25, 0x09, 0xf4, 0x1d, 0xe2, 0xea,
  0x1b, 0x29, 0x2a, 0xe7, 0x1a, 0x2a, 0x0b, 0x21, 0xe3, 0x11, 0x16, 0xdc,
  0x19, 0x08, 0x29, 0xeb, 0x26, 0x04, 0xe1, 0x07, 0xdd, 0x23, 0x12, 0xe2,
  0x06, 0xf3, 0xe2, 0x01, 0xde, 0x02, 0xf1, 0x28, 0xed, 0xeb, 0x0f, 0x26,
  0x19, 0x28, 0xf5, 0xda, 0x1c, 0x18, 0x21, 0xf7, 0x00, 0x1b, 0xf1, 0xf9,
  0xe5, 0x05, 0x07, 0xed, 0xdf, 0x04, 0x15, 0xeb, 0xe9, 0xe4, 0xf2, 0x0d,
  0xdd, 0x09, 0xfc, 0xfc, 0xe8, 0x09, 0x0e, 0x27, 0x2f, 0xdd, 0xf7, 0xdd,
  0x15, 0xdc, 0xf6, 0x10, 0xdf, 0x07, 0xda, 0xff, 0x17, 0x15, 0xe5, 0x11,
  0xe4, 0xe2, 0xfc, 0x28, 0xd1, 0xfe, 0xde, 0xdd, 0xbc, 0xfb, 0xf0, 0xe2,
  0xf8, 0xf4, 0xad, 0xec, 0xe1, 0xc4, 0xed, 0xd9, 0xe2, 0x04, 0x10, 0xe4,
  0xee, 0x09, 0xe0, 0x0c, 0x1d, 0xeb, 0xde, 0xdc, 0x0a, 0x23, 0xe3, 0xed,
  0x26, 0xe4, 0x1a, 0xeb, 0x11, 0x23, 0xed, 0xff, 0xe3, 0xff, 0x06, 0x13,
  0xda, 0x16, 0xda, 0x10, 0xfe, 0x2a, 0xfc, 0xf5, 0x14, 0xde, 0x0f, 0xe3,
  0xdb, 0xbc, 0x0c, 0xdb, 0x1b, 0x20, 0xd7, 0xfd, 0x05, 0xf0, 0xdd, 0xfe,
  0x00, 0x1c, 0x06, 0x00, 0x0e, 0xd9, 0x10, 0x1f, 0x23, 0xff, 0xc8, 0xf7,
  0x16, 0x29, 0xf5, 0x24, 0x16, 0x1b, 0xfd, 0x21, 0x0d, 0x05, 0xe0, 0x00,
  0xf4, 0xd6, 0x01, 0xe1, 0xd9, 0x0a, 0xe5, 0xef, 0x10, 0xdb, 0x23, 0xe4,
  0x0a, 0xdc, 0xec, 0xe3, 0x03, 0x13, 0xe3, 0x14, 0x15, 0x08, 0xfd, 0x03,
  0x1d, 0x09, 0xe1, 0xf5, 0xf3, 0xe2, 0xe0, 0xf3, 0x0a, 0x14, 0xf7, 0x15,
  0x20, 0x03, 0xf5, 0xf2, 0xd9, 0x16, 0x05, 0xe8, 0xd5, 0xdf, 0x1f, 0x06,
  0x00, 0xf2, 0x13, 0x07, 0xdc, 0x00, 0x03, 0x20, 0x12, 0xff, 0x20, 0x1e,
  0x14, 0x1f, 0x14, 0x0c, 0xe4, 0xe9, 0x06, 0xf1, 0xe3, 0x1d, 0x26, 0x02,
  0xf4, 0xe6, 0x01, 0x14, 0xe7, 0xf8, 0x00, 0x0d, 0x08, 0x24, 0xe2, 0x14,
  0xd6, 0xdf, 0xee, 0xea, 0x04, 0x04, 0xf7, 0x09, 0x26, 0x08, 0xfe, 0xfb,
  0xfb, 0x19, 0x07, 0xf5, 0xe4, 0xe2, 0xf9, 0xc4, 0xcd, 0xf6, 0xe1, 0xdd,
  0xe1, 0x27, 0xe7, 0xe2, 0xe1, 0xe0, 0xcc, 0xdb, 0xfd, 0xe5, 0xe9, 0xf7,
  0xeb, 0x26, 0xdb, 0x26, 0x25, 0x2f, 0x01, 0x12, 0xf7, 0x1c, 0xfd, 0x1a,
  0xfe, 0xff, 0x19, 0xd6, 0x18, 0x14, 0x25, 0xfd, 0xd9, 0xe5, 0xf5, 0xd6,
  0xf0, 0x05, 0x01, 0x05, 0xe4, 0xdd, 0x1b, 0xd9, 0x03, 0x17, 0x0b, 0xfd,
  0x15, 0x19, 0x20, 0x08, 0x03, 0xf8, 0xe0, 0xe2, 0xee, 0x07, 0xfa, 0xfd,
  0xf0, 0x13, 0x2a, 0xe3, 0x2e, 0x1e, 0x11, 0x20, 0xf1, 0xe0, 0x11, 0x13,
  0xf9, 0x23, 0xf8, 0x04, 0xed, 0xe4, 0x17, 0x18, 0x16, 0x07, 0xfd, 0x1f,
  0x02, 0x04, 0xee, 0xfe, 0x18, 0x18, 0x25, 0xe4, 0xf8, 0xe9, 0xfe, 0x1f,
  0x05, 0xf4, 0xe3, 0xe3, 0x22, 0x25, 0x28, 0x07, 0x0f, 0x0b, 0xe6, 0xfa,
  0xe9, 0xfe, 0x0f, 0xe7, 0xf6, 0xdb, 0x01, 0x23, 0x1d, 0x08, 0x22, 0x1b,
  0xfc, 0xed, 0x03, 0xdd, 0xff, 0xe2, 0xe3, 0x24, 0x14, 0x1a, 0xda, 0xf7,
  0xd6, 0xf3, 0x2e, 0x13, 0x16, 0x07, 0x29, 0xea, 0x0f, 0xeb, 0xf3, 0xfb,
  0xfd, 0xf5, 0x14, 0x2b, 0x0b, 0x1f, 0x0d, 0x0a, 0x08, 0x18, 0x0e, 0x1b,
  0xeb, 0x2d, 0xe0, 0x19, 0xe8, 0x07, 0x33, 0x03, 0xe1, 0xf8, 0x1f, 0x23,
  0x33, 0x0a, 0xe6, 0xf3, 0xf9, 0x2e, 0xf9, 0xf3, 0x0a, 0x16, 0xfc, 0x15,
  0xff, 0x0e, 0x1a, 0x22, 0xed, 0xf5, 0x11, 0xe4, 0xf1, 0xdf, 0xf4, 0x04,
  0xe1, 0xfe, 0x0a, 0xd7, 0x03, 0xf1, 0xe6, 0xd6, 0x0b, 0xfb, 0xfb, 0xe5,
  0x07, 0x0a, 0x0a, 0xec, 0x26, 0x00, 0xe2, 0x2f, 0xe1, 0x02, 0x1e, 0x12,
  0xf6, 0x05, 0x32, 0x2c, 0x1b, 0x01, 0xe1, 0x28, 0xff, 0x20, 0xff, 0x07,
  0x01, 0xf0, 0xee, 0x2e, 0xe0, 0xfb, 0x05, 0xe0, 0x13, 0x04, 0x1f, 0x00,
  0x0c, 0x17, 0x25, 0xe0, 0x07, 0xfd, 0x07, 0x32, 0x08, 0x0a, 0xdf, 0xdf,
  0xdc, 0x1f, 0x1e, 0xf1, 0x07, 0xfd, 0xfc, 0x15, 0xff, 0xff, 0xe9, 0x11,
  0xfb, 0x30, 0x02, 0xe2, 0x08, 0x05, 0x1e, 0xf4, 0x32, 0x22, 0xe4, 0xe6,
  0x19, 0x12, 0xee, 0xf2, 0x0b, 0xde, 0x05, 0x24, 0x17, 0xed, 0xe4, 0xe5,
  0xfe, 0x0b, 0x02, 0xeb, 0x18, 0xe4, 0xf4, 0x0a, 0x2e, 0xfa, 0x20, 0x23,
  0x01, 0xef, 0xff, 0xf7, 0x0a, 0x0b, 0xe1, 0xe9, 0x09, 0x16, 0x1f, 0xf8,
  0xd6, 0xfd, 0xff, 0xff, 0x04, 0x00, 0x00, 0x00, 0x80, 0x00, 0x00, 0x00,
  0xea, 0xff, 0xff, 0xff, 0xe8, 0xff, 0xff, 0xff, 0xb2, 0x00, 0x00, 0x00,
  0xe1, 0xff, 0xff, 0xff, 0xfa, 0xff, 0xff, 0xff, 0xb9, 0xff, 0xff, 0xff,
  0xab, 0xff, 0xff, 0xff, 0xe0, 0xff, 0xff, 0xff, 0xf5, 0xff, 0xff, 0xff,
  0xa4, 0xff, 0xff, 0xff, 0xe9, 0xff, 0xff, 0xff, 0xc7, 0x00, 0x00, 0x00,
  0xcc, 0xff, 0xff, 0xff, 0x06, 0x00, 0x00, 0x00, 0x28, 0x00, 0x00, 0x00,
  0xd6, 0xff, 0xff, 0xff, 0xf2, 0xff, 0xff, 0xff, 0x45, 0x00, 0x00, 0x00,
  0xc2, 0xff, 0xff, 0xff, 0xff, 0xff, 0xff, 0xff, 0xbb, 0xff, 0xff, 0xff,
  0x43, 0x00, 0x00, 0x00, 0x46, 0x00, 0x00, 0x00, 0xd3, 0xff, 0xff, 0xff,
  0xf8, 0xff, 0xff, 0xff, 0x0a, 0x00, 0x00, 0x00, 0xf0, 0xff, 0xff, 0xff,
  0x41, 0x00, 0x00, 0x00, 0xb7, 0xff, 0xff, 0xff, 0xd6, 0xff, 0xff, 0xff,
  0x0b, 0x00, 0x00, 0x00, 0xa5, 0xff, 0xff, 0xff, 0x62, 0xfe, 0xff, 0xff,
  0x04, 0x00, 0x00, 0x00, 0xa0, 0x00, 0x00, 0x00, 0xcd, 0xe2, 0xd7, 0xf2,
  0x40, 0x20, 0xfe, 0x42, 0x36, 0x2e, 0xfa, 0xf4, 0xe0, 0xf2, 0xd9, 0x48,
  0xfc, 0x29, 0xd1, 0xcd, 0xed, 0xed, 0xc0, 0xdc, 0x11, 0xc7, 0xd2, 0x36,
  0xd1, 0xca, 0x34, 0xbf, 0x1c, 0x45, 0x03, 0xbb, 0x4b, 0xbf, 0x13, 0xb8,
  0xff, 0x4c, 0x17, 0x2b, 0xe7, 0x47, 0xf8, 0xe1, 0x0b, 0x5f, 0xef, 0x0e,
  0x4c, 0xf6, 0xb4, 0xcf, 0xf3, 0x24, 0x02, 0xf4, 0x45, 0x04, 0x02, 0xd0,
  0x28, 0xcb, 0x91, 0x31, 0x38, 0xae, 0x33, 0x01, 0xd9, 0xb9, 0x07, 0xbe,
  0xe0, 0x08, 0x24, 0xe3, 0x23, 0xa4, 0xfb, 0x35, 0xee, 0x3a, 0x1f, 0x3c,
  0x47, 0x5b, 0x22, 0x81, 0x44, 0x4f, 0xda, 0xd7, 0xf9, 0xcc, 0x37, 0xc3,
  0xc6, 0xcc, 0x13, 0xd7, 0xbd, 0xbd, 0xd9, 0x29, 0xec, 0x42, 0x3c, 0x25,
  0x0b, 0x44, 0xc5, 0x47, 0x1f, 0x4b, 0x01, 0x0d, 0x54, 0x45, 0xe6, 0xec,
  0x13, 0x49, 0x09, 0x17, 0x1a, 0x00, 0xbe, 0x4c, 0x2a, 0x1c, 0x40, 0xfe,
  0xb5, 0x3c, 0x17, 0xef, 0xeb, 0x50, 0x2f, 0xb9, 0xe8, 0xef, 0xc7, 0x11,
  0x38, 0xeb, 0xf4, 0x2d, 0xb4, 0x32, 0xc3, 0xe6, 0xcd, 0xdd, 0xe0, 0xce,
  0x0e, 0xff, 0xff, 0xff, 0x04, 0x00, 0x00, 0x00, 0x14, 0x00, 0x00, 0x00,
  0x80, 0xff, 0xff, 0xff, 0x67, 0xff, 0xff, 0xff, 0xf3, 0xff, 0xff, 0xff,
  0x8b, 0x01, 0x00, 0x00, 0xf6, 0xff, 0xff, 0xff, 0x2e, 0xff, 0xff, 0xff,
  0x04, 0x00, 0x00, 0x00, 0x08, 0x00, 0x00, 0x00, 0xff, 0xff, 0xff, 0xff,
  0x00, 0x01, 0x00, 0x00, 0x60, 0xf1, 0xff, 0xff, 0x64, 0xf1, 0xff, 0xff,
  0x0f, 0x00, 0x00, 0x00, 0x4d, 0x4c, 0x49, 0x52, 0x20, 0x43, 0x6f, 0x6e,
  0x76, 0x65, 0x72, 0x74, 0x65, 0x64, 0x2e, 0x00, 0x01, 0x00, 0x00, 0x00,
  0x14, 0x00, 0x00, 0x00, 0x00, 0x00, 0x0e, 0x00, 0x18, 0x00, 0x14, 0x00,
  0x10, 0x00, 0x0c, 0x00, 0x08, 0x00, 0x04, 0x00, 0x0e, 0x00, 0x00, 0x00,
  0x14, 0x00, 0x00, 0x00, 0x1c, 0x00, 0x00, 0x00, 0x74, 0x02, 0x00, 0x00,
  0x78, 0x02, 0x00, 0x00, 0x7c, 0x02, 0x00, 0x00, 0x04, 0x00, 0x00, 0x00,
  0x6d, 0x61, 0x69, 0x6e, 0x00, 0x00, 0x00, 0x00, 0x0a, 0x00, 0x00, 0x00,
  0x3c, 0x02, 0x00, 0x00, 0xe0, 0x01, 0x00, 0x00, 0x9c, 0x01, 0x00, 0x00,
  0x68, 0x01, 0x00, 0x00, 0x14, 0x01, 0x00, 0x00, 0xec, 0x00, 0x00, 0x00,
  0x9c, 0x00, 0x00, 0x00, 0x64, 0x00, 0x00, 0x00, 0x28, 0x00, 0x00, 0x00,
  0x04, 0x00, 0x00, 0x00, 0x32, 0xff, 0xff, 0xff, 0x0c, 0x00, 0x00, 0x00,
  0x10, 0x00, 0x00, 0x00, 0x08, 0x00, 0x00, 0x00, 0x01, 0x00, 0x00, 0x00,
  0x13, 0x00, 0x00, 0x00, 0x01, 0x00, 0x00, 0x00, 0x12, 0x00, 0x00, 0x00,
  0x72, 0xfe, 0xff, 0xff, 0x1c, 0x00, 0x00, 0x00, 0x00, 0x00, 0x00, 0x09,
  0x1c, 0x00, 0x00, 0x00, 0x20, 0x00, 0x00, 0x00, 0x07, 0x00, 0x00, 0x00,
  0x00, 0x00, 0x06, 0x00, 0x08, 0x00, 0x04, 0x00, 0x06, 0x00, 0x00, 0x00,
  0x00, 0x00, 0x80, 0x3f, 0x01, 0x00, 0x00, 0x00, 0x12, 0x00, 0x00, 0x00,
  0x01, 0x00, 0x00, 0x00, 0x11, 0x00, 0x00, 0x00, 0xaa, 0xfe, 0xff, 0xff,
  0x14, 0x00, 0x00, 0x00, 0x00, 0x00, 0x00, 0x08, 0x10, 0x00, 0x00, 0x00,
  0x14, 0x00, 0x00, 0x00, 0x06, 0x00, 0x00, 0x00, 0x54, 0xf2, 0xff, 0xff,
  0x01, 0x00, 0x00, 0x00, 0x11, 0x00, 0x00, 0x00, 0x03, 0x00, 0x00, 0x00,
  0x10, 0x00, 0x00, 0x00, 0x03, 0x00, 0x00, 0x00, 0x02, 0x00, 0x00, 0x00,
  0xde, 0xfe, 0xff, 0xff, 0x1c, 0x00, 0x00, 0x00, 0x00, 0x00, 0x00, 0x08,
  0x1c, 0x00, 0x00, 0x00, 0x20, 0x00, 0x00, 0x00, 0x06, 0x00, 0x00, 0x00,
  0x00, 0x00, 0x06, 0x00, 0x08, 0x00, 0x07, 0x00, 0x06, 0x00, 0x00, 0x00,
  0x00, 0x00, 0x00, 0x01, 0x01, 0x00, 0x00, 0x00, 0x10, 0x00, 0x00, 0x00,
  0x03, 0x00, 0x00, 0x00, 0x0f, 0x00, 0x00, 0x00, 0x05, 0x00, 0x00, 0x00,
  0x04, 0x00, 0x00, 0x00, 0x00, 0x00, 0x0a, 0x00, 0x10, 0x00, 0x0c, 0x00,
  0x08, 0x00, 0x04, 0x00, 0x0a, 0x00, 0x00, 0x00, 0x0c, 0x00, 0x00, 0x00,
  0x10, 0x00, 0x00, 0x00, 0x05, 0x00, 0x00, 0x00, 0x01, 0x00, 0x00, 0x00,
  0x0f, 0x00, 0x00, 0x00, 0x02, 0x00, 0x00, 0x00, 0x0e, 0x00, 0x00, 0x00,
  0x01, 0x00, 0x00, 0x00, 0x4e, 0xff, 0xff, 0xff, 0x24, 0x00, 0x00, 0x00,
  0x00, 0x00, 0x00, 0x05, 0x34, 0x00, 0x00, 0x00, 0x38, 0x00, 0x00, 0x00,
  0x04, 0x00, 0x00, 0x00, 0x00, 0x00, 0x0e, 0x00, 0x18, 0x00, 0x17, 0x00,
  0x10, 0x00, 0x0c, 0x00, 0x08, 0x00, 0x04, 0x00, 0x0e, 0x00, 0x00, 0x00,
  0x02, 0x00, 0x00, 0x00, 0x02, 0x00, 0x00, 0x00, 0x02, 0x00, 0x00, 0x00,
  0x02, 0x00, 0x00, 0x00, 0x00, 0x00, 0x00, 0x01, 0x01, 0x00, 0x00, 0x00,
  0x0e, 0x00, 0x00, 0x00, 0x01, 0x00, 0x00, 0x00, 0x0d, 0x00, 0x00, 0x00,
  0x9e, 0xff, 0xff, 0xff, 0x14, 0x00, 0x00, 0x00, 0x00, 0x00, 0x00, 0x0b,
  0x10, 0x00, 0x00, 0x00, 0x14, 0x00, 0x00, 0x00, 0x03, 0x00, 0x00, 0x00,
  0x48, 0xf3, 0xff, 0xff, 0x01, 0x00, 0x00, 0x00, 0x0d, 0x00, 0x00, 0x00,
  0x02, 0x00, 0x00, 0x00, 0x0c, 0x00, 0x00, 0x00, 0x06, 0x00, 0x00, 0x00,
  0xce, 0xff, 0xff, 0xff, 0x14, 0x00, 0x00, 0x00, 0x00, 0x00, 0x00, 0x15,
  0x10, 0x00, 0x00, 0x00, 0x14, 0x00, 0x00, 0x00, 0x02, 0x00, 0x00, 0x00,
  0x78, 0xf3, 0xff, 0xff, 0x01, 0x00, 0x00, 0x00, 0x0c, 0x00, 0x00, 0x00,
  0x02, 0x00, 0x00, 0x00, 0x0b, 0x00, 0x00, 0x00, 0x07, 0x00, 0x00, 0x00,
  0x00, 0x00, 0x0e, 0x00, 0x18, 0x00, 0x14, 0x00, 0x10, 0x00, 0x0c, 0x00,
  0x0b, 0x00, 0x04, 0x00, 0x0e, 0x00, 0x00, 0x00, 0x20, 0x00, 0x00, 0x00,
  0x00, 0x00, 0x00, 0x01, 0x28, 0x00, 0x00, 0x00, 0x2c, 0x00, 0x00, 0x00,
  0x01, 0x00, 0x00, 0x00, 0x0c, 0x00, 0x10, 0x00, 0x00, 0x00, 0x0c, 0x00,
  0x08, 0x00, 0x07, 0x00, 0x0c, 0x00, 0x00, 0x00, 0x00, 0x00, 0x00, 0x01,
  0x01, 0x00, 0x00, 0x00, 0x01, 0x00, 0x00, 0x00, 0x01, 0x00, 0x00, 0x00,
  0x0b, 0x00, 0x00, 0x00, 0x03, 0x00, 0x00, 0x00, 0x0a, 0x00, 0x00, 0x00,
  0x09, 0x00, 0x00, 0x00, 0x08, 0x00, 0x00, 0x00, 0x00, 0x00, 0x0a, 0x00,
  0x0c, 0x00, 0x00, 0x00, 0x08, 0x00, 0x04, 0x00, 0x0a, 0x00, 0x00, 0x00,
  0x08, 0x00, 0x00, 0x00, 0x0c, 0x00, 0x00, 0x00, 0x01, 0x00, 0x00, 0x00,
  0x0a, 0x00, 0x00, 0x00, 0x01, 0x00, 0x00, 0x00, 0x00, 0x00, 0x00, 0x00,
  0x01, 0x00, 0x00, 0x00, 0x13, 0x00, 0x00, 0x00, 0x01, 0x00, 0x00, 0x00,
  0x00, 0x00, 0x00, 0x00, 0x14, 0x00, 0x00, 0x00, 0xa8, 0x0b, 0x00, 0x00,
  0x44, 0x0b, 0x00, 0x00, 0xa4, 0x0a, 0x00, 0x00, 0x34, 0x0a, 0x00, 0x00,
  0xc0, 0x09, 0x00, 0x00, 0x54, 0x09, 0x00, 0x00, 0xd0, 0x08, 0x00, 0x00,
  0x54, 0x08, 0x00, 0x00, 0x28, 0x07, 0x00, 0x00, 0xfc, 0x05, 0x00, 0x00,
  0x78, 0x05, 0x00, 0x00, 0x7c, 0x04, 0x00, 0x00, 0xd8, 0x03, 0x00, 0x00,
  0x34, 0x03, 0x00, 0x00, 0xa0, 0x02, 0x00, 0x00, 0x24, 0x02, 0x00, 0x00,
  0x78, 0x01, 0x00, 0x00, 0xdc, 0x00, 0x00, 0x00, 0x60, 0x00, 0x00, 0x00,
  0x04, 0x00, 0x00, 0x00, 0xbe, 0xf4, 0xff, 0xff, 0x00, 0x00, 0x00, 0x01,
  0x14, 0x00, 0x00, 0x00, 0x1c, 0x00, 0x00, 0x00, 0x1c, 0x00, 0x00, 0x00,
  0x14, 0x00, 0x00, 0x00, 0x34, 0x00, 0x00, 0x00, 0x02, 0x00, 0x00, 0x00,
  0xff, 0xff, 0xff, 0xff, 0x05, 0x00, 0x00, 0x00, 0xa0, 0xf4, 0xff, 0xff,
  0x19, 0x00, 0x00, 0x00, 0x53, 0x74, 0x61, 0x74, 0x65, 0x66, 0x75, 0x6c,
  0x50, 0x61, 0x72, 0x74, 0x69, 0x74, 0x69, 0x6f, 0x6e, 0x65, 0x64, 0x43,
  0x61, 0x6c, 0x6c, 0x3a, 0x30, 0x00, 0x00, 0x00, 0x02, 0x00, 0x00, 0x00,
  0x01, 0x00, 0x00, 0x00, 0x05, 0x00, 0x00, 0x00, 0x1e, 0xfb, 0xff, 0xff,
  0x00, 0x00, 0x00, 0x01, 0x18, 0x00, 0x00, 0x00, 0x20, 0x00, 0x00, 0x00,
  0x3c, 0x00, 0x00, 0x00, 0x13, 0x00, 0x00, 0x00, 0x00, 0x00, 0x00, 0x09,
  0x50, 0x00, 0x00, 0x00, 0x02, 0x00, 0x00, 0x00, 0xff, 0xff, 0xff, 0xff,
  0x05, 0x00, 0x00, 0x00, 0x0c, 0xf6, 0xff, 0xff, 0x08, 0x00, 0x00, 0x00,
  0x10, 0x00, 0x00, 0x00, 0x01, 0x00, 0x00, 0x00, 0x80, 0xff, 0xff, 0xff,
  0xff, 0xff, 0xff, 0xff, 0x01, 0x00, 0x00, 0x00, 0x00, 0x00, 0x80, 0x3b,
  0x1a, 0x00, 0x00, 0x00, 0x53, 0x74, 0x61, 0x74, 0x65, 0x66, 0x75, 0x6c,
  0x50, 0x61, 0x72, 0x74, 0x69, 0x74, 0x69, 0x6f, 0x6e, 0x65, 0x64, 0x43,
  0x61, 0x6c, 0x6c, 0x3a, 0x30, 0x31, 0x00, 0x00, 0x02, 0x00, 0x00, 0x00,
  0x01, 0x00, 0x00, 0x00, 0x05, 0x00, 0x00, 0x00, 0x96, 0xfb, 0xff, 0xff,
  0x00, 0x00, 0x00, 0x01, 0x18, 0x00, 0x00, 0x00, 0x20, 0x00, 0x00, 0x00,
  0x40, 0x00, 0x00, 0x00, 0x12, 0x00, 0x00, 0x00, 0x00, 0x00, 0x00, 0x09,
  0x70, 0x00, 0x00, 0x00, 0x02, 0x00, 0x00, 0x00, 0xff, 0xff, 0xff, 0xff,
  0x05, 0x00, 0x00, 0x00, 0x84, 0xf6, 0xff, 0xff, 0x08, 0x00, 0x00, 0x00,
  0x14, 0x00, 0x00, 0x00, 0x01, 0x00, 0x00, 0x00, 0x1f, 0x00, 0x00, 0x00,
  0x00, 0x00, 0x00, 0x00, 0x00, 0x00, 0x00, 0x00, 0x01, 0x00, 0x00, 0x00,
  0x19, 0x81, 0x10, 0x3c, 0x34, 0x00, 0x00, 0x00, 0x73, 0x65, 0x71, 0x75,
  0x65, 0x6e, 0x74, 0x69, 0x61, 0x6c, 0x2f, 0x64, 0x65, 0x6e, 0x73, 0x65,
  0x5f, 0x31, 0x2f, 0x4d, 0x61, 0x74, 0x4d, 0x75, 0x6c, 0x3b, 0x73, 0x65,
  0x71, 0x75, 0x65, 0x6e, 0x74, 0x69, 0x61, 0x6c, 0x2f, 0x64, 0x65, 0x6e,
  0x73, 0x65, 0x5f, 0x31, 0x2f, 0x42, 0x69, 0x61, 0x73, 0x41, 0x64, 0x64,
  0x00, 0x00, 0x00, 0x00, 0x02, 0x00, 0x00, 0x00, 0x01, 0x00, 0x00, 0x00,
  0x05, 0x00, 0x00, 0x00, 0x2e, 0xfc, 0xff, 0xff, 0x00, 0x00, 0x00, 0x01,
  0x18, 0x00, 0x00, 0x00, 0x20, 0x00, 0x00, 0x00, 0x40, 0x00, 0x00, 0x00,
  0x11, 0x00, 0x00, 0x00, 0x00, 0x00, 0x00, 0x09, 0x80, 0x00, 0x00, 0x00,
  0x02, 0x00, 0x00, 0x00, 0xff, 0xff, 0xff, 0xff, 0x20, 0x00, 0x00, 0x00,
  0x1c, 0xf7, 0xff, 0xff, 0x08, 0x00, 0x00, 0x00, 0x14, 0x00, 0x00, 0x00,
  0x01, 0x00, 0x00, 0x00, 0x80, 0xff, 0xff, 0xff, 0xff, 0xff, 0xff, 0xff,
  0x00, 0x00, 0x00, 0x00, 0x01, 0x00, 0x00, 0x00, 0x94, 0xc9, 0xe0, 0x3c,
  0x46, 0x00, 0x00, 0x00, 0x73, 0x65, 0x71, 0x75, 0x65, 0x6e, 0x74, 0x69,
  0x61, 0x6c, 0x2f, 0x64, 0x65, 0x6e, 0x73, 0x65, 0x2f, 0x4d, 0x61, 0x74,
  0x4d, 0x75, 0x6c, 0x3b, 0x73, 0x65, 0x71, 0x75, 0x65, 0x6e, 0x74, 0x69,
  0x61, 0x6c, 0x2f, 0x64, 0x65, 0x6e, 0x73, 0x65, 0x2f, 0x52, 0x65, 0x6c,
  0x75, 0x3b, 0x73, 0x65, 0x71, 0x75, 0x65, 0x6e, 0x74, 0x69, 0x61, 0x6c,
  0x2f, 0x64, 0x65, 0x6e, 0x73, 0x65, 0x2f, 0x42, 0x69, 0x61, 0x73, 0x41,
  0x64, 0x64, 0x00, 0x00, 0x02, 0x00, 0x00, 0x00, 0x01, 0x00, 0x00, 0x00,
  0x20, 0x00, 0x00, 0x00, 0xd6, 0xfc, 0xff, 0xff, 0x00, 0x00, 0x00, 0x01,
  0x18, 0x00, 0x00, 0x00, 0x20, 0x00, 0x00, 0x00, 0x3c, 0x00, 0x00, 0x00,
  0x10, 0x00, 0x00, 0x00, 0x00, 0x00, 0x00, 0x09, 0x50, 0x00, 0x00, 0x00,
  0x02, 0x00, 0x00, 0x00, 0xff, 0xff, 0xff, 0xff, 0x00, 0x01, 0x00, 0x00,
  0xc4, 0xf7, 0xff, 0xff, 0x08, 0x00, 0x00, 0x00, 0x10, 0x00, 0x00, 0x00,
  0x01, 0x00, 0x00, 0x00, 0x81, 0xff, 0xff, 0xff, 0xff, 0xff, 0xff, 0xff,
  0x01, 0x00, 0x00, 0x00, 0xe2, 0xba, 0xf4, 0x3d, 0x1a, 0x00, 0x00, 0x00,
  0x73, 0x65, 0x71, 0x75, 0x65, 0x6e, 0x74, 0x69, 0x61, 0x6c, 0x2f, 0x66,
  0x6c, 0x61, 0x74, 0x74, 0x65, 0x6e, 0x2f, 0x52, 0x65, 0x73, 0x68, 0x61,
  0x70, 0x65, 0x00, 0x00, 0x02, 0x00, 0x00, 0x00, 0x01, 0x00, 0x00, 0x00,
  0x00, 0x01, 0x00, 0x00, 0x4e, 0xfd, 0xff, 0xff, 0x00, 0x00, 0x00, 0x01,
  0x18, 0x00, 0x00, 0x00, 0x28, 0x00, 0x00, 0x00, 0x44, 0x00, 0x00, 0x00,
  0x0f, 0x00, 0x00, 0x00, 0x00, 0x00, 0x00, 0x09, 0x60, 0x00, 0x00, 0x00,
  0x04, 0x00, 0x00, 0x00, 0xff, 0xff, 0xff, 0xff, 0x04, 0x00, 0x00, 0x00,
  0x04, 0x00, 0x00, 0x00, 0x10, 0x00, 0x00, 0x00, 0x44, 0xf8, 0xff, 0xff,
  0x08, 0x00, 0x00, 0x00, 0x10, 0x00, 0x00, 0x00, 0x01, 0x00, 0x00, 0x00,
  0x81, 0xff, 0xff, 0xff, 0xff, 0xff, 0xff, 0xff, 0x01, 0x00, 0x00, 0x00,
  0xe2, 0xba, 0xf4, 0x3d, 0x20, 0x00, 0x00, 0x00, 0x73, 0x65, 0x71, 0x75,
  0x65, 0x6e, 0x74, 0x69, 0x61, 0x6c, 0x2f, 0x6d, 0x61, 0x78, 0x5f, 0x70,
  0x6f, 0x6f, 0x6c, 0x69, 0x6e, 0x67, 0x32, 0x64, 0x2f, 0x4d, 0x61, 0x78,
  0x50, 0x6f, 0x6f, 0x6c, 0x00, 0x00, 0x00, 0x00, 0x04, 0x00, 0x00, 0x00,
  0x01, 0x00, 0x00, 0x00, 0x04, 0x00, 0x00, 0x00, 0x04, 0x00, 0x00, 0x00,
  0x10, 0x00, 0x00, 0x00, 0xde, 0xfd, 0xff, 0xff, 0x00, 0x00, 0x00, 0x01,
  0x18, 0x00, 0x00, 0x00, 0x28, 0x00, 0x00, 0x00, 0x44, 0x00, 0x00, 0x00,
  0x0e, 0x00, 0x00, 0x00, 0x00, 0x00, 0x00, 0x09, 0x70, 0x00, 0x00, 0x00,
  0x04, 0x00, 0x00, 0x00, 0xff, 0xff, 0xff, 0xff, 0x09, 0x00, 0x00, 0x00,
  0x09, 0x00, 0x00, 0x00, 0x10, 0x00, 0x00, 0x00, 0xd4, 0xf8, 0xff, 0xff,
  0x08, 0x00, 0x00, 0x00, 0x10, 0x00, 0x00, 0x00, 0x01, 0x00, 0x00, 0x00,
  0x81, 0xff, 0xff, 0xff, 0xff, 0xff, 0xff, 0xff, 0x01, 0x00, 0x00, 0x00,
  0xe2, 0xba, 0xf4, 0x3d, 0x30, 0x00, 0x00, 0x00, 0x73, 0x65, 0x71, 0x75,
  0x65, 0x6e, 0x74, 0x69, 0x61, 0x6c, 0x2f, 0x62, 0x61, 0x74, 0x63, 0x68,
  0x5f, 0x6e, 0x6f, 0x72, 0x6d, 0x61, 0x6c, 0x69, 0x7a, 0x61, 0x74, 0x69,
  0x6f, 0x6e, 0x2f, 0x46, 0x75, 0x73, 0x65, 0x64, 0x42, 0x61, 0x74, 0x63,
  0x68, 0x4e, 0x6f, 0x72, 0x6d, 0x56, 0x33, 0x33, 0x00, 0x00, 0x00, 0x00,
  0x04, 0x00, 0x00, 0x00, 0x01, 0x00, 0x00, 0x00, 0x09, 0x00, 0x00, 0x00,
  0x09, 0x00, 0x00, 0x00, 0x10, 0x00, 0x00, 0x00, 0x7e, 0xfe, 0xff, 0xff,
  0x00, 0x00, 0x00, 0x01, 0x18, 0x00, 0x00, 0x00, 0x28, 0x00, 0x00, 0x00,
  0x44, 0x00, 0x00, 0x00, 0x0d, 0x00, 0x00, 0x00, 0x00, 0x00, 0x00, 0x09,
  0x70, 0x00, 0x00, 0x00, 0x04, 0x00, 0x00, 0x00, 0xff, 0xff, 0xff, 0xff,
  0x09, 0x00, 0x00, 0x00, 0x09, 0x00, 0x00, 0x00, 0x10, 0x00, 0x00, 0x00,
  0x74, 0xf9, 0xff, 0xff, 0x08, 0x00, 0x00, 0x00, 0x10, 0x00, 0x00, 0x00,
  0x01, 0x00, 0x00, 0x00, 0x80, 0xff, 0xff, 0xff, 0xff, 0xff, 0xff, 0xff,
  0x01, 0x00, 0x00, 0x00, 0xcf, 0x11, 0xf4, 0x3d, 0x30, 0x00, 0x00, 0x00,
  0x73, 0x65, 0x71, 0x75, 0x65, 0x6e, 0x74, 0x69, 0x61, 0x6c, 0x2f, 0x62,
  0x61, 0x74, 0x63, 0x68, 0x5f, 0x6e, 0x6f, 0x72, 0x6d, 0x61, 0x6c, 0x69,
  0x7a, 0x61, 0x74, 0x69, 0x6f, 0x6e, 0x2f, 0x46, 0x75, 0x73, 0x65, 0x64,
  0x42, 0x61, 0x74, 0x63, 0x68, 0x4e, 0x6f, 0x72, 0x6d, 0x56, 0x33, 0x32,
  0x00, 0x00, 0x00, 0x00, 0x04, 0x00, 0x00, 0x00, 0x01, 0x00, 0x00, 0x00,
  0x09, 0x00, 0x00, 0x00, 0x09, 0x00, 0x00, 0x00, 0x10, 0x00, 0x00, 0x00,
  0x1e, 0xff, 0xff, 0xff, 0x00, 0x00, 0x00, 0x01, 0x18, 0x00, 0x00, 0x00,
  0x28, 0x00, 0x00, 0x00, 0x44, 0x00, 0x00, 0x00, 0x0c, 0x00, 0x00, 0x00,
  0x00, 0x00, 0x00, 0x09, 0xb0, 0x00, 0x00, 0x00, 0x04, 0x00, 0x00, 0x00,
  0xff, 0xff, 0xff, 0xff, 0x09, 0x00, 0x00, 0x00, 0x09, 0x00, 0x00, 0x00,
  0x10, 0x00, 0x00, 0x00, 0x14, 0xfa, 0xff, 0xff, 0x08, 0x00, 0x00, 0x00,
  0x10, 0x00, 0x00, 0x00, 0x01, 0x00, 0x00, 0x00, 0x80, 0xff, 0xff, 0xff,
  0xff, 0xff, 0xff, 0xff, 0x01, 0x00, 0x00, 0x00, 0x1e, 0x5d, 0x99, 0x52,
  0x72, 0x00, 0x00, 0x00, 0x73, 0x65, 0x71, 0x75, 0x65, 0x6e, 0x74, 0x69,
  0x61, 0x6c, 0x2f, 0x63, 0x6f, 0x6e, 0x76, 0x32, 0x64, 0x2f, 0x52, 0x65,
  0x6c, 0x75, 0x3b, 0x73, 0x65, 0x71, 0x75, 0x65, 0x6e, 0x74, 0x69, 0x61,
  0x6c, 0x2f, 0x63, 0x6f, 0x6e, 0x76, 0x32, 0x64, 0x2f, 0x42, 0x69, 0x61,
  0x73, 0x41, 0x64, 0x64, 0x3b, 0x73, 0x65, 0x71, 0x75, 0x65, 0x6e, 0x74,
  0x69, 0x61, 0x6c, 0x2f, 0x63, 0x6f, 0x6e, 0x76, 0x32, 0x64, 0x2f, 0x43,
  0x6f, 0x6e, 0x76, 0x32, 0x44, 0x3b, 0x73, 0x65, 0x71, 0x75, 0x65, 0x6e,
  0x74, 0x69, 0x61, 0x6c, 0x2f, 0x63, 0x6f, 0x6e, 0x76, 0x32, 0x64, 0x2f,
  0x42, 0x69, 0x61, 0x73, 0x41, 0x64, 0x64, 0x2f, 0x52, 0x65, 0x61, 0x64,
  0x56, 0x61, 0x72, 0x69, 0x61, 0x62, 0x6c, 0x65, 0x4f, 0x70, 0x00, 0x00,
  0x04, 0x00, 0x00, 0x00, 0x01, 0x00, 0x00, 0x00, 0x09, 0x00, 0x00, 0x00,
  0x09, 0x00, 0x00, 0x00, 0x10, 0x00, 0x00, 0x00, 0x00, 0x00, 0x16, 0x00,
  0x20, 0x00, 0x1c, 0x00, 0x1b, 0x00, 0x14, 0x00, 0x10, 0x00, 0x0c, 0x00,
  0x00, 0x00, 0x00, 0x00, 0x08, 0x00, 0x07, 0x00, 0x16, 0x00, 0x00, 0x00,
  0x00, 0x00, 0x00, 0x01, 0x18, 0x00, 0x00, 0x00, 0x28, 0x00, 0x00, 0x00,
  0x48, 0x00, 0x00, 0x00, 0x0b, 0x00, 0x00, 0x00, 0x00, 0x00, 0x00, 0x09,
  0x50, 0x00, 0x00, 0x00, 0x04, 0x00, 0x00, 0x00, 0xff, 0xff, 0xff, 0xff,
  0x09, 0x00, 0x00, 0x00, 0x09, 0x00, 0x00, 0x00, 0x01, 0x00, 0x00, 0x00,
  0x0c, 0xfb, 0xff, 0xff, 0x08, 0x00, 0x00, 0x00, 0x14, 0x00, 0x00, 0x00,
  0x01, 0x00, 0x00, 0x00, 0x80, 0xff, 0xff, 0xff, 0xff, 0xff, 0xff, 0xff,
  0x00, 0x00, 0x00, 0x00, 0x01, 0x00, 0x00, 0x00, 0x61, 0xcd, 0xae, 0x53,
  0x0c, 0x00, 0x00, 0x00, 0x74, 0x66, 0x6c, 0x2e, 0x71, 0x75, 0x61, 0x6e,
  0x74, 0x69, 0x7a, 0x65, 0x00, 0x00, 0x00, 0x00, 0x04, 0x00, 0x00, 0x00,
  0x01, 0x00, 0x00, 0x00, 0x09, 0x00, 0x00, 0x00, 0x09, 0x00, 0x00, 0x00,
  0x01, 0x00, 0x00, 0x00, 0xee, 0xfa, 0xff, 0xff, 0x00, 0x00, 0x00, 0x01,
  0x14, 0x00, 0x00, 0x00, 0xe8, 0x00, 0x00, 0x00, 0x0a, 0x00, 0x00, 0x00,
  0x00, 0x00, 0x00, 0x09, 0xfc, 0x00, 0x00, 0x00, 0x74, 0xfb, 0xff, 0xff,
  0x08, 0x00, 0x00, 0x00, 0x8c, 0x00, 0x00, 0x00, 0x10, 0x00, 0x00, 0x00,
  0x00, 0x00, 0x00, 0x00, 0x00, 0x00, 0x00, 0x00, 0x00, 0x00, 0x00, 0x00,
  0x00, 0x00, 0x00, 0x00, 0x00, 0x00, 0x00, 0x00, 0x00, 0x00, 0x00, 0x00,
  0x00, 0x00, 0x00, 0x00, 0x00, 0x00, 0x00, 0x00, 0x00, 0x00, 0x00, 0x00,
  0x00, 0x00, 0x00, 0x00, 0x00, 0x00, 0x00, 0x00, 0x00, 0x00, 0x00, 0x00,
  0x00, 0x00, 0x00, 0x00, 0x00, 0x00, 0x00, 0x00, 0x00, 0x00, 0x00, 0x00,
  0x00, 0x00, 0x00, 0x00, 0x00, 0x00, 0x00, 0x00, 0x00, 0x00, 0x00, 0x00,
  0x00, 0x00, 0x00, 0x00, 0x00, 0x00, 0x00, 0x00, 0x00, 0x00, 0x00, 0x00,
  0x00, 0x00, 0x00, 0x00, 0x00, 0x00, 0x00, 0x00, 0x00, 0x00, 0x00, 0x00,
  0x00, 0x00, 0x00, 0x00, 0x00, 0x00, 0x00, 0x00, 0x00, 0x00, 0x00, 0x00,
  0x00, 0x00, 0x00, 0x00, 0x00, 0x00, 0x00, 0x00, 0x00, 0x00, 0x00, 0x00,
  0x00, 0x00, 0x00, 0x00, 0x00, 0x00, 0x00, 0x00, 0x00, 0x00, 0x00, 0x00,
  0x10, 0x00, 0x00, 0x00, 0xc8, 0x32, 0x7d, 0x3b, 0xb4, 0xb6, 0xc1, 0x3a,
  0xab, 0x43, 0x4b, 0x3b, 0xe0, 0xb1, 0x4c, 0x3b, 0x14, 0x61, 0xe2, 0x3a,
  0x7c, 0x5b, 0x2d, 0x3b, 0x34, 0x4a, 0x16, 0x3b, 0xba, 0x66, 0xc0, 0x3a,
  0xf3, 0x5b, 0xf9, 0x3a, 0xd2, 0xb2, 0x18, 0x3b, 0x09, 0xc6, 0x73, 0x3b,
  0x45, 0x20, 0x70, 0x3b, 0x1f, 0xba, 0xa2, 0x3a, 0x89, 0x39, 0xbd, 0x3a,
  0x29, 0xff, 0x40, 0x3b, 0xfe, 0x62, 0xcc, 0x3a, 0x18, 0x00, 0x00, 0x00,
  0x73, 0x65, 0x71, 0x75, 0x65, 0x6e, 0x74, 0x69, 0x61, 0x6c, 0x2f, 0x63,
  0x6f, 0x6e, 0x76, 0x32, 0x64, 0x2f, 0x43, 0x6f, 0x6e, 0x76, 0x32, 0x44,
  0x00, 0x00, 0x00, 0x00, 0x04, 0x00, 0x00, 0x00, 0x10, 0x00, 0x00, 0x00,
  0x03, 0x00, 0x00, 0x00, 0x03, 0x00, 0x00, 0x00, 0x01, 0x00, 0x00, 0x00,
  0x16, 0xfc, 0xff, 0xff, 0x00, 0x00, 0x00, 0x01, 0x14, 0x00, 0x00, 0x00,
  0xe4, 0x00, 0x00, 0x00, 0x09, 0x00, 0x00, 0x00, 0x00, 0x00, 0x00, 0x02,
  0x08, 0x01, 0x00, 0x00, 0x9c, 0xfc, 0xff, 0xff, 0x08, 0x00, 0x00, 0x00,
  0x88, 0x00, 0x00, 0x00, 0x10, 0x00, 0x00, 0x00, 0x00, 0x00, 0x00, 0x00,
  0x00, 0x00, 0x00, 0x00, 0x00, 0x00, 0x00, 0x00, 0x00, 0x00, 0x00, 0x00,
  0x00, 0x00, 0x00, 0x00, 0x00, 0x00, 0x00, 0x00, 0x00, 0x00, 0x00, 0x00,
  0x00, 0x00, 0x00, 0x00, 0x00, 0x00, 0x00, 0x00, 0x00, 0x00, 0x00, 0x00,
  0x00, 0x00, 0x00, 0x00, 0x00, 0x00, 0x00, 0x00, 0x00, 0x00, 0x00, 0x00,
  0x00, 0x00, 0x00, 0x00, 0x00, 0x00, 0x00, 0x00, 0x00, 0x00, 0x00, 0x00,
  0x00, 0x00, 0x00, 0x00, 0x00, 0x00, 0x00, 0x00, 0x00, 0x00, 0x00, 0x00,
  0x00, 0x00, 0x00, 0x00, 0x00, 0x00, 0x00, 0x00, 0x00, 0x00, 0x00, 0x00,
  0x00, 0x00, 0x00, 0x00, 0x00, 0x00, 0x00, 0x00, 0x00, 0x00, 0x00, 0x00,
  0x00, 0x00, 0x00, 0x00, 0x00, 0x00, 0x00, 0x00, 0x00, 0x00, 0x00, 0x00,
  0x00, 0x00, 0x00, 0x00, 0x00, 0x00, 0x00, 0x00, 0x00, 0x00, 0x00, 0x00,
  0x00, 0x00, 0x00, 0x00, 0x10, 0x00, 0x00, 0x00, 0xa6, 0xe3, 0xac, 0x4f,
  0x97, 0x45, 0x04, 0x4f, 0x10, 0xcb, 0x8a, 0x4f, 0x1e, 0xc5, 0x8b, 0x4f,
  0x99, 0x93, 0x1a, 0x4f, 0x84, 0xbe, 0x6c, 0x4f, 0x03, 0x3e, 0x4d, 0x4f,
  0x2e, 0x60, 0x03, 0x4f, 0x8c, 0x44, 0x2a, 0x4f, 0x18, 0x88, 0x50, 0x4f,
  0x2c, 0x74, 0xa6, 0x4f, 0x94, 0xf6, 0xa3, 0x4f, 0x1c, 0x3a, 0xde, 0x4e,
  0xea, 0x34, 0x01, 0x4f, 0x43, 0xc8, 0x83, 0x4f, 0x41, 0x8f, 0x0b, 0x4f,
  0x28, 0x00, 0x00, 0x00, 0x73, 0x65, 0x71, 0x75, 0x65, 0x6e, 0x74, 0x69,
  0x61, 0x6c, 0x2f, 0x63, 0x6f, 0x6e, 0x76, 0x32, 0x64, 0x2f, 0x42, 0x69,
  0x61, 0x73, 0x41, 0x64, 0x64, 0x2f, 0x52, 0x65, 0x61, 0x64, 0x56, 0x61,
  0x72, 0x69, 0x61, 0x62, 0x6c, 0x65, 0x4f, 0x70, 0x00, 0x00, 0x00, 0x00,
  0x01, 0x00, 0x00, 0x00, 0x10, 0x00, 0x00, 0x00, 0x3e, 0xfd, 0xff, 0xff,
  0x00, 0x00, 0x00, 0x01, 0x14, 0x00, 0x00, 0x00, 0x30, 0x00, 0x00, 0x00,
  0x08, 0x00, 0x00, 0x00, 0x00, 0x00, 0x00, 0x09, 0x58, 0x00, 0x00, 0x00,
  0xc4, 0xfd, 0xff, 0xff, 0x08, 0x00, 0x00, 0x00, 0x10, 0x00, 0x00, 0x00,
  0x01, 0x00, 0x00, 0x00, 0x00, 0x00, 0x00, 0x00, 0x00, 0x00, 0x00, 0x00,
  0x01, 0x00, 0x00, 0x00, 0x7b, 0xbe, 0x86, 0x31, 0x2f, 0x00, 0x00, 0x00,
  0x73, 0x65, 0x71, 0x75, 0x65, 0x6e, 0x74, 0x69, 0x61, 0x6c, 0x2f, 0x62,
  0x61, 0x74, 0x63, 0x68, 0x5f, 0x6e, 0x6f, 0x72, 0x6d, 0x61, 0x6c, 0x69,
  0x7a, 0x61, 0x74, 0x69, 0x6f, 0x6e, 0x2f, 0x46, 0x75, 0x73, 0x65, 0x64,
  0x42, 0x61, 0x74, 0x63, 0x68, 0x4e, 0x6f, 0x72, 0x6d, 0x56, 0x33, 0x00,
  0x01, 0x00, 0x00, 0x00, 0x10, 0x00, 0x00, 0x00, 0xb6, 0xfd, 0xff, 0xff,
  0x00, 0x00, 0x00, 0x01, 0x14, 0x00, 0x00, 0x00, 0x34, 0x00, 0x00, 0x00,
  0x07, 0x00, 0x00, 0x00, 0x00, 0x00, 0x00, 0x09, 0x60, 0x00, 0x00, 0x00,
  0x3c, 0xfe, 0xff, 0xff, 0x08, 0x00, 0x00, 0x00, 0x14, 0x00, 0x00, 0x00,
  0x01, 0x00, 0x00, 0x00, 0x7f, 0x00, 0x00, 0x00, 0x00, 0x00, 0x00, 0x00,
  0x00, 0x00, 0x00, 0x00, 0x01, 0x00, 0x00, 0x00, 0xc6, 0x1a, 0xf1, 0x39,
  0x30, 0x00, 0x00, 0x00, 0x73, 0x65, 0x71, 0x75, 0x65, 0x6e, 0x74, 0x69,
  0x61, 0x6c, 0x2f, 0x62, 0x61, 0x74, 0x63, 0x68, 0x5f, 0x6e, 0x6f, 0x72,
  0x6d, 0x61, 0x6c, 0x69, 0x7a, 0x61, 0x74, 0x69, 0x6f, 0x6e, 0x2f, 0x46,
  0x75, 0x73, 0x65, 0x64, 0x42, 0x61, 0x74, 0x63, 0x68, 0x4e, 0x6f, 0x72,
  0x6d, 0x56, 0x33, 0x31, 0x00, 0x00, 0x00, 0x00, 0x01, 0x00, 0x00, 0x00,
  0x10, 0x00, 0x00, 0x00, 0x36, 0xfe, 0xff, 0xff, 0x00, 0x00, 0x00, 0x01,
  0x14, 0x00, 0x00, 0x00, 0x34, 0x00, 0x00, 0x00, 0x06, 0x00, 0x00, 0x00,
  0x00, 0x00, 0x00, 0x09, 0x44, 0x00, 0x00, 0x00, 0xbc, 0xfe, 0xff, 0xff,
  0x08, 0x00, 0x00, 0x00, 0x14, 0x00, 0x00, 0x00, 0x01, 0x00, 0x00, 0x00,
  0x00, 0x00, 0x00, 0x00, 0x00, 0x00, 0x00, 0x00, 0x00, 0x00, 0x00, 0x00,
  0x01, 0x00, 0x00, 0x00, 0x0f, 0xbb, 0x5f, 0x3b, 0x17, 0x00, 0x00, 0x00,
  0x73, 0x65, 0x71, 0x75, 0x65, 0x6e, 0x74, 0x69, 0x61, 0x6c, 0x2f, 0x64,
  0x65, 0x6e, 0x73, 0x65, 0x2f, 0x4d, 0x61, 0x74, 0x4d, 0x75, 0x6c, 0x00,
  0x02, 0x00, 0x00, 0x00, 0x20, 0x00, 0x00, 0x00, 0x00, 0x01, 0x00, 0x00,
  0x9e, 0xfe, 0xff, 0xff, 0x00, 0x00, 0x00, 0x01, 0x14, 0x00, 0x00, 0x00,
  0x30, 0x00, 0x00, 0x00, 0x05, 0x00, 0x00, 0x00, 0x00, 0x00, 0x00, 0x02,
  0x50, 0x00, 0x00, 0x00, 0x24, 0xff, 0xff, 0xff, 0x08, 0x00, 0x00, 0x00,
  0x10, 0x00, 0x00, 0x00, 0x01, 0x00, 0x00, 0x00, 0x00, 0x00, 0x00, 0x00,
  0x00, 0x00, 0x00, 0x00, 0x01, 0x00, 0x00, 0x00, 0x9e, 0xe1, 0xd5, 0x39,
  0x27, 0x00, 0x00, 0x00, 0x73, 0x65, 0x71, 0x75, 0x65, 0x6e, 0x74, 0x69,
  0x61, 0x6c, 0x2f, 0x64, 0x65, 0x6e, 0x73, 0x65, 0x2f, 0x42, 0x69, 0x61,
  0x73, 0x41, 0x64, 0x64, 0x2f, 0x52, 0x65, 0x61, 0x64, 0x56, 0x61, 0x72,
  0x69, 0x61, 0x62, 0x6c, 0x65, 0x4f, 0x70, 0x00, 0x01, 0x00, 0x00, 0x00,
  0x20, 0x00, 0x00, 0x00, 0x0e, 0xff, 0xff, 0xff, 0x00, 0x00, 0x00, 0x01,
  0x14, 0x00, 0x00, 0x00, 0x34, 0x00, 0x00, 0x00, 0x04, 0x00, 0x00, 0x00,
  0x00, 0x00, 0x00, 0x09, 0x48, 0x00, 0x00, 0x00, 0x94, 0xff, 0xff, 0xff,
  0x08, 0x00, 0x00, 0x00, 0x14, 0x00, 0x00, 0x00, 0x01, 0x00, 0x00, 0x00,
  0x00, 0x00, 0x00, 0x00, 0x00, 0x00, 0x00, 0x00, 0x00, 0x00, 0x00, 0x00,
  0x01, 0x00, 0x00, 0x00, 0x54, 0xf9, 0x8b, 0x3b, 0x19, 0x00, 0x00, 0x00,
  0x73, 0x65, 0x71, 0x75, 0x65, 0x6e, 0x74, 0x69, 0x61, 0x6c, 0x2f, 0x64,
  0x65, 0x6e, 0x73, 0x65, 0x5f, 0x31, 0x2f, 0x4d, 0x61, 0x74, 0x4d, 0x75,
  0x6c, 0x00, 0x00, 0x00, 0x02, 0x00, 0x00, 0x00, 0x05, 0x00, 0x00, 0x00,
  0x20, 0x00, 0x00, 0x00, 0x7a, 0xff, 0xff, 0xff, 0x00, 0x00, 0x00, 0x01,
  0x20, 0x00, 0x00, 0x00, 0x40, 0x00, 0x00, 0x00, 0x03, 0x00, 0x00, 0x00,
  0x00, 0x00, 0x00, 0x02, 0x64, 0x00, 0x00, 0x00, 0x0c, 0x00, 0x0c, 0x00,
  0x00, 0x00, 0x00, 0x00, 0x08, 0x00, 0x04, 0x00, 0x0c, 0x00, 0x00, 0x00,
  0x08, 0x00, 0x00, 0x00, 0x14, 0x00, 0x00, 0x00, 0x01, 0x00, 0x00, 0x00,
  0x00, 0x00, 0x00, 0x00, 0x00, 0x00, 0x00, 0x00, 0x00, 0x00, 0x00, 0x00,
  0x01, 0x00, 0x00, 0x00, 0xc2, 0xd0, 0xf5, 0x38, 0x29, 0x00, 0x00, 0x00,
  0x73, 0x65, 0x71, 0x75, 0x65, 0x6e, 0x74, 0x69, 0x61, 0x6c, 0x2f, 0x64,
  0x65, 0x6e, 0x73, 0x65, 0x5f, 0x31, 0x2f, 0x42, 0x69, 0x61, 0x73, 0x41,
  0x64, 0x64, 0x2f, 0x52, 0x65, 0x61, 0x64, 0x56, 0x61, 0x72, 0x69, 0x61,
  0x62, 0x6c, 0x65, 0x4f, 0x70, 0x00, 0x00, 0x00, 0x01, 0x00, 0x00, 0x00,
  0x05, 0x00, 0x00, 0x00, 0x00, 0x00, 0x16, 0x00, 0x1c, 0x00, 0x18, 0x00,
  0x17, 0x00, 0x10, 0x00, 0x0c, 0x00, 0x08, 0x00, 0x00, 0x00, 0x00, 0x00,
  0x00, 0x00, 0x07, 0x00, 0x16, 0x00, 0x00, 0x00, 0x00, 0x00, 0x00, 0x01,
  0x14, 0x00, 0x00, 0x00, 0x14, 0x00, 0x00, 0x00, 0x02, 0x00, 0x00, 0x00,
  0x00, 0x00, 0x00, 0x02, 0x28, 0x00, 0x00, 0x00, 0x8c, 0xff, 0xff, 0xff,
  0x18, 0x00, 0x00, 0x00, 0x73, 0x65, 0x71, 0x75, 0x65, 0x6e, 0x74, 0x69,
  0x61, 0x6c, 0x2f, 0x66, 0x6c, 0x61, 0x74, 0x74, 0x65, 0x6e, 0x2f, 0x43,
  0x6f, 0x6e, 0x73, 0x74, 0x00, 0x00, 0x00, 0x00, 0x01, 0x00, 0x00, 0x00,
  0x02, 0x00, 0x00, 0x00, 0x00, 0x00, 0x16, 0x00, 0x1c, 0x00, 0x18, 0x00,
  0x00, 0x00, 0x14, 0x00, 0x10, 0x00, 0x0c, 0x00, 0x00, 0x00, 0x00, 0x00,
  0x08, 0x00, 0x07, 0x00, 0x16, 0x00, 0x00, 0x00, 0x00, 0x00, 0x00, 0x01,
  0x14, 0x00, 0x00, 0x00, 0x28, 0x00, 0x00, 0x00, 0x28, 0x00, 0x00, 0x00,
  0x01, 0x00, 0x00, 0x00, 0x44, 0x00, 0x00, 0x00, 0x04, 0x00, 0x00, 0x00,
  0xff, 0xff, 0xff, 0xff, 0x09, 0x00, 0x00, 0x00, 0x09, 0x00, 0x00, 0x00,
  0x01, 0x00, 0x00, 0x00, 0x04, 0x00, 0x04, 0x00, 0x04, 0x00, 0x00, 0x00,
  0x1e, 0x00, 0x00, 0x00, 0x73, 0x65, 0x72, 0x76, 0x69, 0x6e, 0x67, 0x5f,
  0x64, 0x65, 0x66, 0x61, 0x75, 0x6c, 0x74, 0x5f, 0x63, 0x6f, 0x6e, 0x76,
  0x32, 0x64, 0x5f, 0x69, 0x6e, 0x70, 0x75, 0x74, 0x3a, 0x30, 0x00, 0x00,
  0x04, 0x00, 0x00, 0x00, 0x01, 0x00, 0x00, 0x00, 0x09, 0x00, 0x00, 0x00,
  0x09, 0x00, 0x00, 0x00, 0x01, 0x00, 0x00, 0x00, 0x09, 0x00, 0x00, 0x00,
  0xc4, 0x00, 0x00, 0x00, 0xa4, 0x00, 0x00, 0x00, 0x84, 0x00, 0x00, 0x00,
  0x78, 0x00, 0x00, 0x00, 0x5c, 0x00, 0x00, 0x00, 0x40, 0x00, 0x00, 0x00,
  0x2c, 0x00, 0x00, 0x00, 0x18, 0x00, 0x00, 0x00, 0x04, 0x00, 0x00, 0x00,
  0x88, 0xff, 0xff, 0xff, 0x06, 0x00, 0x00, 0x00, 0x02, 0x00, 0x00, 0x00,
  0x00, 0x00, 0x00, 0x06, 0x98, 0xff, 0xff, 0xff, 0x19, 0x00, 0x00, 0x00,
  0x02, 0x00, 0x00, 0x00, 0x00, 0x00, 0x00, 0x19, 0xa8, 0xff, 0xff, 0xff,
  0x09, 0x00, 0x00, 0x00, 0x04, 0x00, 0x00, 0x00, 0x00, 0x00, 0x00, 0x09,
  0x9c, 0xff, 0xff, 0xff, 0x16, 0x00, 0x00, 0x00, 0x00, 0x00, 0x00, 0x16,
  0x0c, 0x00, 0x0e, 0x00, 0x0d, 0x00, 0x00, 0x00, 0x08, 0x00, 0x04, 0x00,
  0x0c, 0x00, 0x00, 0x00, 0x11, 0x00, 0x00, 0x00, 0x02, 0x00, 0x00, 0x00,
  0x00, 0x11, 0x0a, 0x00, 0x08, 0x00, 0x00, 0x00, 0x00, 0x00, 0x04, 0x00,
  0x0a, 0x00, 0x00, 0x00, 0x02, 0x00, 0x00, 0x00, 0xf0, 0xff, 0xff, 0xff,
  0x12, 0x00, 0x00, 0x00, 0x03, 0x00, 0x00, 0x00, 0x00, 0x00, 0x00, 0x12,
  0x0c, 0x00, 0x10, 0x00, 0x0f, 0x00, 0x00, 0x00, 0x08, 0x00, 0x04, 0x00,
  0x0c, 0x00, 0x00, 0x00, 0x03, 0x00, 0x00, 0x00, 0x03, 0x00, 0x00, 0x00,
  0x00, 0x00, 0x00, 0x03, 0x0c, 0x00, 0x0c, 0x00, 0x0b, 0x00, 0x00, 0x00,
  0x00, 0x00, 0x04, 0x00, 0x0c, 0x00, 0x00, 0x00, 0x72, 0x00, 0x00, 0x00,
  0x00, 0x00, 0x00, 0x72
};
unsigned int SKF_Gear_model_keras_to_tflite_with_fe_tflite_len = 13408;
