#include <cstdint>
#include "fault_diagnosis/model_keras_to_tflite.h"

//CWRU
const unsigned char CWRU_Bearing_2_best_model_with_fe_tflite[] = {
  0x20, 0x00, 0x00, 0x00, 0x54, 0x46, 0x4c, 0x33, 0x00, 0x00, 0x00, 0x00,
  0x14, 0x00, 0x20, 0x00, 0x1c, 0x00, 0x18, 0x00, 0x14, 0x00, 0x10, 0x00,
  0x0c, 0x00, 0x00, 0x00, 0x08, 0x00, 0x04, 0x00, 0x14, 0x00, 0x00, 0x00,
  0x1c, 0x00, 0x00, 0x00, 0x90, 0x00, 0x00, 0x00, 0xe8, 0x00, 0x00, 0x00,
  0x20, 0x25, 0x00, 0x00, 0x30, 0x25, 0x00, 0x00, 0x40, 0x33, 0x00, 0x00,
  0x03, 0x00, 0x00, 0x00, 0x01, 0x00, 0x00, 0x00, 0x04, 0x00, 0x00, 0x00,
  0xd6, 0xd9, 0xff, 0xff, 0x0c, 0x00, 0x00, 0x00, 0x1c, 0x00, 0x00, 0x00,
  0x38, 0x00, 0x00, 0x00, 0x0f, 0x00, 0x00, 0x00, 0x73, 0x65, 0x72, 0x76,
  0x69, 0x6e, 0x67, 0x5f, 0x64, 0x65, 0x66, 0x61, 0x75, 0x6c, 0x74, 0x00,
  0x01, 0x00, 0x00, 0x00, 0x04, 0x00, 0x00, 0x00, 0x8c, 0xff, 0xff, 0xff,
  0x11, 0x00, 0x00, 0x00, 0x04, 0x00, 0x00, 0x00, 0x07, 0x00, 0x00, 0x00,
  0x64, 0x65, 0x6e, 0x73, 0x65, 0x5f, 0x31, 0x00, 0x01, 0x00, 0x00, 0x00,
  0x04, 0x00, 0x00, 0x00, 0xb6, 0xda, 0xff, 0xff, 0x04, 0x00, 0x00, 0x00,
  0x16, 0x00, 0x00, 0x00, 0x64, 0x65, 0x70, 0x74, 0x68, 0x77, 0x69, 0x73,
  0x65, 0x5f, 0x63, 0x6f, 0x6e, 0x76, 0x32, 0x64, 0x5f, 0x69, 0x6e, 0x70,
  0x75, 0x74, 0x00, 0x00, 0x02, 0x00, 0x00, 0x00, 0x34, 0x00, 0x00, 0x00,
  0x04, 0x00, 0x00, 0x00, 0xdc, 0xff, 0xff, 0xff, 0x14, 0x00, 0x00, 0x00,
  0x04, 0x00, 0x00, 0x00, 0x13, 0x00, 0x00, 0x00, 0x43, 0x4f, 0x4e, 0x56,
  0x45, 0x52, 0x53, 0x49, 0x4f, 0x4e, 0x5f, 0x4d, 0x45, 0x54, 0x41, 0x44,
  0x41, 0x54, 0x41, 0x00, 0x08, 0x00, 0x0c, 0x00, 0x08, 0x00, 0x04, 0x00,
  0x08, 0x00, 0x00, 0x00, 0x13, 0x00, 0x00, 0x00, 0x04, 0x00, 0x00, 0x00,
  0x13, 0x00, 0x00, 0x00, 0x6d, 0x69, 0x6e, 0x5f, 0x72, 0x75, 0x6e, 0x74,
  0x69, 0x6d, 0x65, 0x5f, 0x76, 0x65, 0x72, 0x73, 0x69, 0x6f, 0x6e, 0x00,
  0x15, 0x00, 0x00, 0x00, 0x34, 0x24, 0x00, 0x00, 0x2c, 0x24, 0x00, 0x00,
  0x14, 0x24, 0x00, 0x00, 0xdc, 0x23, 0x00, 0x00, 0x8c, 0x22, 0x00, 0x00,
  0xfc, 0x21, 0x00, 0x00, 0xec, 0x01, 0x00, 0x00, 0x9c, 0x01, 0x00, 0x00,
  0xfc, 0x00, 0x00, 0x00, 0xe8, 0x00, 0x00, 0x00, 0xcc, 0x00, 0x00, 0x00,
  0xc4, 0x00, 0x00, 0x00, 0xbc, 0x00, 0x00, 0x00, 0xb4, 0x00, 0x00, 0x00,
  0xac, 0x00, 0x00, 0x00, 0xa4, 0x00, 0x00, 0x00, 0x9c, 0x00, 0x00, 0x00,
  0x94, 0x00, 0x00, 0x00, 0x8c, 0x00, 0x00, 0x00, 0x6c, 0x00, 0x00, 0x00,
  0x04, 0x00, 0x00, 0x00, 0x8e, 0xdb, 0xff, 0xff, 0x04, 0x00, 0x00, 0x00,
  0x58, 0x00, 0x00, 0x00, 0x0c, 0x00, 0x00, 0x00, 0x08, 0x00, 0x0e, 0x00,
  0x08, 0x00, 0x04, 0x00, 0x08, 0x00, 0x00, 0x00, 0x10, 0x00, 0x00, 0x00,
  0x28, 0x00, 0x00, 0x00, 0x00, 0x00, 0x06, 0x00, 0x08, 0x00, 0x04, 0x00,
  0x06, 0x00, 0x00, 0x00, 0x04, 0x00, 0x00, 0x00, 0x01, 0x00, 0x00, 0x00,
  0xeb, 0x03, 0x00, 0x00, 0x00, 0x00, 0x0a, 0x00, 0x10, 0x00, 0x0c, 0x00,
  0x08, 0x00, 0x04, 0x00, 0x0a, 0x00, 0x00, 0x00, 0x02, 0x00, 0x00, 0x00,
  0x02, 0x00, 0x00, 0x00, 0x04, 0x00, 0x00, 0x00, 0x06, 0x00, 0x00, 0x00,
  0x32, 0x2e, 0x31, 0x33, 0x2e, 0x30, 0x00, 0x00, 0xf2, 0xdb, 0xff, 0xff,
  0x04, 0x00, 0x00, 0x00, 0x10, 0x00, 0x00, 0x00, 0x31, 0x2e, 0x31, 0x34,
  0x2e, 0x30, 0x00, 0x00, 0x00, 0x00, 0x00, 0x00, 0x00, 0x00, 0x00, 0x00,
  0xc0, 0xce, 0xff, 0xff, 0xc4, 0xce, 0xff, 0xff, 0xc8, 0xce, 0xff, 0xff,
  0xcc, 0xce, 0xff, 0xff, 0xd0, 0xce, 0xff, 0xff, 0xd4, 0xce, 0xff, 0xff,
  0xd8, 0xce, 0xff, 0xff, 0xdc, 0xce, 0xff, 0xff, 0x2e, 0xdc, 0xff, 0xff,
  0x04, 0x00, 0x00, 0x00, 0x09, 0x00, 0x00, 0x00, 0x29, 0x83, 0x0d, 0xf1,
  0x1b, 0x3b, 0x7f, 0x99, 0xaa, 0x00, 0x00, 0x00, 0x46, 0xdc, 0xff, 0xff,
  0x04, 0x00, 0x00, 0x00, 0x04, 0x00, 0x00, 0x00, 0x6f, 0x02, 0x00, 0x00,
  0x56, 0xdc, 0xff, 0xff, 0x04, 0x00, 0x00, 0x00, 0x90, 0x00, 0x00, 0x00,
  0xf1, 0x65, 0xde, 0x99, 0x7f, 0xbc, 0x22, 0xca, 0xf0, 0xb4, 0x6d, 0x1e,
  0xe6, 0xc1, 0x7f, 0x6e, 0xc2, 0xb1, 0x11, 0x05, 0xe2, 0xff, 0xc0, 0x7f,
  0x5f, 0x11, 0xe4, 0x4d, 0x81, 0xea, 0x23, 0xeb, 0xa9, 0xfe, 0xf6, 0xc0,
  0x15, 0x1a, 0x7f, 0x6c, 0x1a, 0x6c, 0xed, 0x47, 0xe5, 0xf4, 0xe2, 0xab,
  0x19, 0x48, 0x81, 0x11, 0x9c, 0xd5, 0x11, 0x48, 0x7f, 0x5e, 0xef, 0xf3,
  0x1c, 0xda, 0x71, 0xe8, 0x7f, 0xca, 0x19, 0xaa, 0x18, 0xf3, 0x5f, 0xe4,
  0x7f, 0xdb, 0x50, 0x0d, 0xc7, 0x48, 0x11, 0xe8, 0x01, 0xff, 0x00, 0xc3,
  0x24, 0xc7, 0x04, 0x81, 0x5d, 0xad, 0xf8, 0x9c, 0x4f, 0x7f, 0x06, 0xa8,
  0xb0, 0xf5, 0x50, 0x2c, 0xcc, 0x18, 0x1a, 0xff, 0xd2, 0x1a, 0xcf, 0x7f,
  0x0e, 0x71, 0x7f, 0x33, 0x70, 0x7a, 0x10, 0x07, 0x5f, 0x2d, 0x81, 0x42,
  0xe2, 0xf1, 0x05, 0x39, 0xf3, 0xbe, 0x7f, 0xbf, 0x27, 0xe3, 0x01, 0x0c,
  0x14, 0xb7, 0x04, 0x05, 0xf1, 0xe0, 0x00, 0xc9, 0x7f, 0xe9, 0x00, 0xe7,
  0xf2, 0xdc, 0xff, 0xff, 0x04, 0x00, 0x00, 0x00, 0x40, 0x00, 0x00, 0x00,
  0x1a, 0x03, 0x00, 0x00, 0x32, 0xfd, 0xff, 0xff, 0x6a, 0xf6, 0xff, 0xff,
  0x6a, 0x16, 0x00, 0x00, 0xe0, 0xd9, 0xff, 0xff, 0x94, 0x1b, 0x00, 0x00,
  0x63, 0xe0, 0xff, 0xff, 0x6a, 0xfa, 0xff, 0xff, 0x43, 0xf4, 0xff, 0xff,
  0x09, 0x12, 0x00, 0x00, 0x96, 0x01, 0x00, 0x00, 0xf8, 0xf8, 0xff, 0xff,
  0x5e, 0xc7, 0xff, 0xff, 0x06, 0x08, 0x00, 0x00, 0xfd, 0xff, 0xff, 0xff,
  0x11, 0x04, 0x00, 0x00, 0x3e, 0xdd, 0xff, 0xff, 0x04, 0x00, 0x00, 0x00,
  0x00, 0x20, 0x00, 0x00, 0x03, 0x08, 0x06, 0x01, 0xfd, 0xfb, 0xfb, 0xf8,
  0x04, 0x06, 0x14, 0x03, 0xfb, 0xfe, 0xf9, 0x05, 0x09, 0x0c, 0x05, 0xfd,
  0x00, 0x01, 0xff, 0xf4, 0xfa, 0x01, 0x0c, 0xfc, 0x03, 0xff, 0xfd, 0x01,
  0xfd, 0x01, 0xfa, 0x08, 0xee, 0x05, 0xfa, 0xf7, 0x03, 0xfb, 0xfc, 0xff,
  0xf6, 0x01, 0xfa, 0xfb, 0xfe, 0xf5, 0xfa, 0x01, 0xf0, 0xfe, 0x05, 0x01,
  0x06, 0xfb, 0xfc, 0x02, 0xc5, 0xfd, 0x00, 0x06, 0x0b, 0x05, 0xfd, 0x07,
  0xf9, 0x03, 0xd7, 0xf5, 0x01, 0x01, 0x09, 0x09, 0x00, 0x08, 0xfe, 0x02,
  0x05, 0x1b, 0xfc, 0x08, 0xfd, 0x01, 0x04, 0xf8, 0x03, 0xfe, 0xda, 0xfd,
  0x01, 0x07, 0x04, 0xfe, 0xf4, 0xfd, 0xf4, 0x6c, 0xf7, 0x08, 0xfa, 0xd4,
  0x02, 0x10, 0xf5, 0xfd, 0xf8, 0xfa, 0xfe, 0xff, 0xfd, 0xfc, 0xf1, 0x06,
  0x04, 0xfc, 0xf6, 0x03, 0xfa, 0x59, 0x02, 0xea, 0xf9, 0xfa, 0x04, 0xfd,
  0x04, 0x7f, 0x1b, 0x07, 0x02, 0x04, 0x35, 0x24, 0xfd, 0x00, 0x4b, 0x03,
  0x00, 0x06, 0x07, 0x09, 0x10, 0x44, 0x02, 0x06, 0xfe, 0x0a, 0x12, 0x53,
  0xff, 0xfe, 0x2b, 0xfe, 0xfe, 0x0b, 0x0b, 0x03, 0xf7, 0xfc, 0x02, 0x17,
  0xfa, 0x02, 0x03, 0xf8, 0x04, 0x07, 0x00, 0xfa, 0x05, 0x00, 0x00, 0xf8,
  0xfd, 0x03, 0xf8, 0x03, 0xfd, 0xfb, 0x05, 0x03, 0xfb, 0x11, 0x03, 0xfd,
  0x00, 0xfc, 0x00, 0x05, 0x12, 0x09, 0xfd, 0x05, 0x02, 0x00, 0xec, 0x01,
  0xfb, 0x02, 0xfc, 0x05, 0x01, 0xff, 0x07, 0xfe, 0x0c, 0x00, 0x00, 0x05,
  0xfc, 0x06, 0x01, 0xf5, 0xfa, 0x05, 0x0c, 0x06, 0x06, 0x03, 0x00, 0xfe,
  0x07, 0xfc, 0x12, 0x0c, 0xfe, 0x06, 0xf8, 0xfe, 0xfc, 0x0a, 0xf6, 0xf7,
  0xfe, 0x04, 0xfa, 0x09, 0xfe, 0xf8, 0x02, 0x24, 0xfd, 0x32, 0x01, 0xfc,
  0xf7, 0x08, 0xf2, 0xfa, 0x05, 0xfe, 0xfd, 0x2b, 0xf4, 0xf1, 0xf2, 0x01,
  0xfc, 0x00, 0x00, 0x2c, 0xe9, 0xfa, 0xf7, 0x00, 0xfe, 0xf8, 0xea, 0xfc,
  0xfc, 0xe3, 0xf6, 0x06, 0x03, 0xfd, 0x09, 0xfe, 0xf8, 0x04, 0xeb, 0xdd,
  0x00, 0xfe, 0x21, 0x09, 0xf3, 0x03, 0xf9, 0x00, 0x0c, 0x0a, 0x07, 0xfd,
  0xfe, 0x07, 0xfc, 0xff, 0x06, 0x00, 0x14, 0x03, 0xfd, 0xf1, 0x04, 0x05,
  0x00, 0x01, 0xff, 0x03, 0xf8, 0x02, 0xfd, 0x02, 0x0a, 0x07, 0x02, 0x07,
  0xeb, 0xd1, 0xf3, 0x05, 0x04, 0xfa, 0x96, 0x4c, 0xd7, 0x08, 0xf7, 0xf8,
  0x03, 0x01, 0xee, 0x02, 0xec, 0xf3, 0xe0, 0xff, 0xfb, 0xfc, 0x01, 0xf3,
  0xf0, 0x07, 0xd9, 0xfe, 0xfb, 0xfc, 0xf6, 0xf9, 0x10, 0xfb, 0x01, 0x00,
  0xfd, 0xf5, 0x05, 0xf1, 0x03, 0xe6, 0xfc, 0xfe, 0x05, 0x08, 0xfe, 0x00,
  0x06, 0xfb, 0x15, 0xfa, 0x08, 0x0a, 0x02, 0x09, 0xfe, 0x04, 0x01, 0x06,
  0x06, 0xfc, 0x02, 0x08, 0xfa, 0xa3, 0xc1, 0x07, 0xfc, 0x06, 0x03, 0xe0,
  0xec, 0xf9, 0xe3, 0xdb, 0xfa, 0xfa, 0x02, 0x01, 0xe6, 0xe5, 0x08, 0xfd,
  0x06, 0xf9, 0xfb, 0xad, 0xf5, 0xff, 0xef, 0x09, 0x00, 0x00, 0xec, 0xff,
  0x1d, 0x02, 0xff, 0x11, 0x0d, 0x04, 0x02, 0x04, 0x05, 0xfd, 0x06, 0x04,
  0x09, 0x01, 0x06, 0x04, 0xf6, 0x08, 0x09, 0x03, 0x08, 0xfe, 0xfa, 0x01,
  0x08, 0x08, 0x00, 0x07, 0x0b, 0xfc, 0x0a, 0xfd, 0xe0, 0xf6, 0xf9, 0xff,
  0xfa, 0x00, 0xca, 0xc1, 0xef, 0x01, 0x10, 0x07, 0xfc, 0x00, 0xfa, 0x09,
  0xfd, 0x03, 0x02, 0x02, 0x03, 0x01, 0xd8, 0x03, 0x00, 0x06, 0x00, 0xf3,
  0xfe, 0x07, 0x0d, 0x05, 0x05, 0x00, 0xf3, 0x00, 0x0b, 0x04, 0x0a, 0x08,
  0x11, 0xe6, 0x0d, 0xfd, 0x04, 0x03, 0x0f, 0xff, 0x03, 0x09, 0xfc, 0x18,
  0x0c, 0x04, 0x0b, 0x09, 0x00, 0xf4, 0xfd, 0x05, 0x04, 0x02, 0xfc, 0xcb,
  0x05, 0xfb, 0xf9, 0xfe, 0x00, 0x00, 0xfd, 0x03, 0xff, 0xfb, 0x02, 0x06,
  0x00, 0x00, 0x04, 0xf9, 0x08, 0x00, 0x02, 0xfb, 0xfe, 0xff, 0xfa, 0x07,
  0xff, 0x03, 0x01, 0x03, 0xfd, 0xfa, 0xfa, 0x01, 0x05, 0xfb, 0x02, 0xfb,
  0xfb, 0x00, 0xfb, 0xfc, 0x07, 0xfe, 0xfb, 0x03, 0xfc, 0xfd, 0x00, 0x05,
  0xfa, 0x06, 0xfd, 0xfe, 0xfb, 0xfc, 0xff, 0x04, 0xf9, 0x04, 0xfa, 0x02,
  0xfc, 0x05, 0xfe, 0x04, 0xfa, 0x00, 0xfe, 0xfb, 0x04, 0x06, 0x00, 0x05,
  0x05, 0x05, 0xfa, 0xff, 0x07, 0xff, 0x04, 0x03, 0x01, 0x06, 0x00, 0x03,
  0x01, 0x04, 0x03, 0xfb, 0x00, 0x07, 0xfa, 0xfc, 0x06, 0xf9, 0xfd, 0xfa,
  0x01, 0xfb, 0xf9, 0xfc, 0x01, 0xfe, 0xfa, 0xfe, 0x01, 0x05, 0x04, 0x02,
  0xfc, 0xf8, 0x04, 0xfc, 0x02, 0x07, 0xfb, 0xfa, 0x04, 0x03, 0xfb, 0x00,
  0x03, 0x01, 0xfe, 0x04, 0x04, 0xff, 0xf9, 0xff, 0xfe, 0x07, 0x03, 0xf9,
  0x03, 0xfe, 0xf9, 0xf9, 0x00, 0xfb, 0xff, 0x03, 0x04, 0x02, 0xfb, 0xf9,
  0x02, 0xfb, 0xfd, 0xfc, 0xfa, 0xfd, 0xfe, 0x00, 0xfe, 0xf9, 0x02, 0x02,
  0xfa, 0xfb, 0x00, 0xff, 0x01, 0x06, 0xf8, 0xfc, 0x06, 0x07, 0xfb, 0x00,
  0xfa, 0xfd, 0x01, 0xff, 0xff, 0x00, 0x01, 0x06, 0xfb, 0xf9, 0x00, 0xff,
  0xfe, 0x00, 0xf9, 0x05, 0xfe, 0xfd, 0x01, 0xff, 0x04, 0xfc, 0xfe, 0x01,
  0x01, 0xfe, 0x02, 0x07, 0x03, 0xf9, 0x05, 0xfc, 0x06, 0x02, 0x04, 0x03,
  0xfa, 0x03, 0x01, 0x04, 0xfe, 0x03, 0x06, 0x00, 0x00, 0x05, 0xfc, 0x03,
  0x02, 0x05, 0xfa, 0x07, 0xff, 0xfb, 0xf9, 0xfa, 0x00, 0xfd, 0xfb, 0x00,
  0x01, 0xf9, 0x04, 0xfe, 0xfa, 0xfd, 0x05, 0xfa, 0xfe, 0x03, 0x00, 0xf9,
  0x03, 0xf8, 0xfa, 0xf8, 0xfc, 0x05, 0x02, 0xff, 0x05, 0x00, 0x02, 0x07,
  0xfd, 0x05, 0x05, 0x01, 0xf7, 0xf0, 0xfa, 0x01, 0xf9, 0xf7, 0x02, 0xf5,
  0x01, 0x04, 0xf2, 0xf8, 0x05, 0xf9, 0xfb, 0xf9, 0xf2, 0xe7, 0xee, 0x01,
  0x00, 0xff, 0xfd, 0xee, 0xff, 0xf8, 0xf7, 0xfc, 0xfc, 0xf9, 0xf8, 0xfb,
  0x09, 0x00, 0xf7, 0xf8, 0x0f, 0x03, 0x06, 0xfd, 0x00, 0x04, 0x0b, 0xfc,
  0x10, 0xfc, 0x04, 0x04, 0xf6, 0xf4, 0xfc, 0x05, 0xfb, 0xfa, 0x06, 0x06,
  0xf9, 0x00, 0xfd, 0x02, 0x10, 0xfa, 0x04, 0xf4, 0xef, 0xf2, 0xf7, 0xf7,
  0x03, 0x02, 0xe8, 0xda, 0x01, 0xfe, 0xf5, 0xf9, 0xfa, 0x06, 0xf9, 0xf8,
  0x00, 0xf4, 0xf3, 0xfe, 0x06, 0x00, 0xfa, 0xef, 0xf0, 0xfa, 0x07, 0xff,
  0x06, 0xf6, 0xf2, 0xff, 0x0c, 0x00, 0x01, 0x04, 0x05, 0xf5, 0x00, 0xf8,
  0x09, 0xe0, 0x00, 0x02, 0x08, 0xfe, 0xfe, 0xfc, 0xfd, 0x00, 0x18, 0x05,
  0xfe, 0x0d, 0xfe, 0x0c, 0x03, 0xfd, 0x00, 0xfe, 0xfc, 0xf5, 0x00, 0x05,
  0xf6, 0xfc, 0x0e, 0x02, 0xff, 0xfe, 0x07, 0x0a, 0xfe, 0xf8, 0x01, 0x0e,
  0x01, 0xfa, 0x01, 0xfc, 0xfe, 0xfb, 0xef, 0xff, 0x05, 0x03, 0x04, 0x11,
  0x00, 0xfe, 0xff, 0xf2, 0x01, 0xfa, 0x01, 0xf9, 0x0d, 0xfa, 0x05, 0x0b,
  0x02, 0xf7, 0x07, 0xfe, 0x0c, 0xf1, 0x03, 0x01, 0x0b, 0xf0, 0x00, 0x02,
  0xfe, 0xf8, 0x07, 0xff, 0x09, 0xfd, 0x02, 0x03, 0x01, 0x1f, 0xfd, 0x09,
  0x08, 0x01, 0xfd, 0xfb, 0x03, 0xe3, 0xf1, 0x01, 0xff, 0x02, 0x0c, 0x0f,
  0xff, 0xf9, 0xf9, 0xf3, 0x02, 0xfe, 0xf6, 0xf6, 0xf3, 0xe5, 0xee, 0xfd,
  0xfa, 0xfa, 0xe4, 0xd2, 0xfc, 0xff, 0xdf, 0xf0, 0xfc, 0xff, 0xfc, 0x04,
  0x23, 0x08, 0xda, 0x06, 0x04, 0xfc, 0x08, 0x05, 0x00, 0xea, 0x0b, 0x0b,
  0x0c, 0x08, 0x00, 0x0a, 0xfb, 0xfa, 0xfa, 0x09, 0x07, 0xe5, 0x04, 0x04,
  0x08, 0xf7, 0x2a, 0x03, 0x07, 0xfb, 0x07, 0x0a, 0xef, 0x22, 0x1d, 0x0c,
  0xfd, 0x07, 0xfc, 0x19, 0x0c, 0x0d, 0x10, 0x18, 0x03, 0x10, 0x00, 0x0a,
  0x1d, 0x23, 0x0e, 0x07, 0xfb, 0x0b, 0x01, 0x1d, 0x02, 0x0f, 0x16, 0xe7,
  0xfa, 0x06, 0x05, 0xfd, 0xdd, 0xe4, 0xf7, 0x04, 0xf3, 0x04, 0xee, 0xf5,
  0xfe, 0xfd, 0xfa, 0xf4, 0xe9, 0x07, 0x0d, 0xfe, 0x11, 0x12, 0xf6, 0x02,
  0xfc, 0x08, 0xfc, 0xf8, 0x03, 0x09, 0x04, 0xf7, 0xf1, 0x05, 0xf5, 0xfc,
  0x13, 0x1c, 0x0a, 0x09, 0x00, 0x02, 0x56, 0x0b, 0x08, 0x0a, 0x1c, 0x0b,
  0xfb, 0x04, 0x10, 0x05, 0x15, 0x1b, 0xf4, 0x0d, 0xfd, 0x03, 0x05, 0x2a,
  0x02, 0x0d, 0xdf, 0x21, 0xfe, 0x0e, 0x10, 0xf6, 0xfa, 0xf1, 0xf7, 0x1d,
  0xf8, 0x0d, 0xf5, 0xf8, 0xfb, 0x12, 0xf6, 0x00, 0xfb, 0x00, 0xf5, 0xf3,
  0xfe, 0xfa, 0xfb, 0x0b, 0xfb, 0xfb, 0xf2, 0xfd, 0xf5, 0x09, 0xf6, 0x16,
  0xfa, 0x06, 0x00, 0xf6, 0x06, 0x3e, 0x15, 0x00, 0xfb, 0x04, 0x22, 0xfb,
  0x0f, 0x0a, 0x0f, 0x04, 0x04, 0x09, 0x0d, 0x0b, 0x1a, 0x05, 0x0f, 0x03,
  0xfa, 0x05, 0xff, 0x24, 0x20, 0x04, 0x0a, 0x11, 0x03, 0x04, 0x06, 0x07,
  0x01, 0xff, 0x0a, 0x01, 0x0d, 0x04, 0x01, 0x01, 0x0b, 0xfb, 0x0a, 0x08,
  0x14, 0x06, 0x03, 0x0c, 0xff, 0x00, 0x0b, 0x02, 0x0e, 0x0c, 0x08, 0x03,
  0xfb, 0x0d, 0x00, 0x0f, 0x0c, 0x02, 0xf8, 0x08, 0xfe, 0x23, 0x1b, 0x0b,
  0x02, 0x06, 0x1b, 0xfd, 0x09, 0x03, 0x05, 0x14, 0xf9, 0x04, 0x00, 0x05,
  0x20, 0x10, 0x0d, 0x0c, 0xfe, 0x0a, 0x13, 0x19, 0x04, 0x12, 0x13, 0x14,
  0xfa, 0x0d, 0x0e, 0x06, 0x1f, 0x10, 0x1e, 0xf3, 0x12, 0xee, 0x0e, 0x00,
  0x10, 0x0a, 0x02, 0xf8, 0x0d, 0xff, 0x07, 0xef, 0x08, 0x03, 0xfa, 0x21,
  0x12, 0x20, 0x08, 0xf2, 0x11, 0x06, 0xde, 0x00, 0x0f, 0x03, 0x0f, 0x06,
  0x0d, 0x03, 0x02, 0xf8, 0xfb, 0x03, 0x00, 0x12, 0xfc, 0x03, 0x0a, 0x03,
  0xfb, 0xf9, 0x00, 0xfc, 0x03, 0x00, 0xfe, 0x05, 0xfc, 0x01, 0xf8, 0x03,
  0x02, 0x08, 0x06, 0xf8, 0xfb, 0x06, 0x0a, 0x04, 0x0b, 0x06, 0x04, 0xfa,
  0x0a, 0xfa, 0x01, 0xfd, 0x05, 0x00, 0x01, 0x04, 0x08, 0xfe, 0x00, 0xf9,
  0x17, 0x02, 0x03, 0xfc, 0xfe, 0xf8, 0x02, 0xfa, 0xfa, 0x0c, 0x0a, 0x01,
  0xfb, 0x01, 0x05, 0x00, 0x03, 0x01, 0x28, 0x01, 0x07, 0x04, 0x10, 0x42,
  0xfc, 0x04, 0x0c, 0xfd, 0x02, 0xfb, 0xfd, 0xff, 0x0d, 0x09, 0x07, 0xfa,
  0xfd, 0x04, 0x03, 0xfc, 0xfe, 0xf9, 0x2a, 0x17, 0xfc, 0xff, 0xfc, 0x02,
  0x02, 0x00, 0x06, 0xfb, 0x06, 0x11, 0x06, 0x10, 0x04, 0xf9, 0x01, 0xf7,
  0x01, 0xf9, 0x00, 0x01, 0x06, 0x00, 0xe9, 0xfd, 0x00, 0xf9, 0x04, 0xe9,
  0x06, 0x0a, 0x05, 0x0e, 0xfa, 0x01, 0x01, 0x00, 0xfd, 0x98, 0xbc, 0x00,
  0xfe, 0x02, 0xfc, 0xe5, 0xea, 0x03, 0xcc, 0xe3, 0xfd, 0xf9, 0xfe, 0xf7,
  0xe9, 0xfc, 0xfa, 0xfd, 0x05, 0xfc, 0xf5, 0xb5, 0xee, 0x01, 0xdf, 0xfd,
  0xfb, 0xfc, 0xf0, 0xfe, 0x01, 0x06, 0x06, 0x08, 0x0b, 0x00, 0x00, 0xfd,
  0x09, 0x07, 0x03, 0xf7, 0xf3, 0xf8, 0x00, 0x09, 0xff, 0x0b, 0x0b, 0xf9,
  0xfe, 0xfb, 0x04, 0x0c, 0x02, 0xe7, 0x08, 0x00, 0x03, 0xea, 0x05, 0x05,
  0xe8, 0x05, 0x00, 0xfb, 0xfa, 0x01, 0x08, 0xf9, 0xff, 0xfb, 0x17, 0xff,
  0x02, 0xf9, 0xf7, 0x04, 0x0a, 0xfb, 0x07, 0x05, 0xff, 0xfc, 0x0a, 0x0d,
  0xfc, 0x00, 0x09, 0x05, 0xfe, 0x00, 0x00, 0x04, 0xde, 0x00, 0x0f, 0xfb,
  0x08, 0x07, 0x03, 0x09, 0x03, 0xf5, 0x04, 0x06, 0xf9, 0xfe, 0x08, 0xea,
  0x04, 0x02, 0x05, 0xf5, 0x04, 0x03, 0x0b, 0x04, 0x03, 0xed, 0xe9, 0x09,
  0x0b, 0x04, 0x04, 0xca, 0x01, 0x03, 0x00, 0x03, 0xfc, 0x05, 0xfe, 0xf9,
  0x06, 0xfb, 0x05, 0xfc, 0x07, 0xff, 0xf9, 0x03, 0xfc, 0x05, 0xf9, 0x06,
  0x02, 0x06, 0x00, 0x02, 0xf8, 0x00, 0xf9, 0x05, 0x05, 0x00, 0x03, 0xfe,
  0xfd, 0xfe, 0xf8, 0x03, 0x03, 0xfa, 0x06, 0x00, 0x07, 0xfd, 0xfe, 0xfd,
  0x07, 0xff, 0x01, 0x03, 0x02, 0x04, 0x01, 0x01, 0x04, 0xfb, 0xfa, 0xfd,
  0x07, 0x02, 0xfa, 0x01, 0xfc, 0x04, 0xff, 0x04, 0xfc, 0xf9, 0x05, 0xfa,
  0xfa, 0xfd, 0xfb, 0xfa, 0x01, 0xfc, 0xfe, 0x06, 0x00, 0x02, 0x03, 0xfd,
  0xf9, 0xfb, 0x05, 0xfd, 0xff, 0xff, 0x02, 0xfb, 0x01, 0x07, 0xfd, 0xfe,
  0x03, 0xff, 0x00, 0xff, 0xfe, 0xfc, 0x05, 0xff, 0x03, 0x07, 0x03, 0xfc,
  0x07, 0x04, 0xfc, 0x04, 0x04, 0xf9, 0xff, 0xfc, 0xff, 0xfb, 0x01, 0xfb,
  0xfc, 0xf9, 0x07, 0x04, 0xf9, 0x04, 0x07, 0xfc, 0x06, 0x06, 0x04, 0xfb,
  0x00, 0x00, 0x01, 0xf9, 0xfe, 0xf9, 0x01, 0xfb, 0xf9, 0xfd, 0x03, 0x01,
  0xfc, 0xfc, 0xfd, 0x06, 0x06, 0x02, 0xfb, 0x02, 0x05, 0xfd, 0xf9, 0xff,
  0x05, 0x00, 0x04, 0xff, 0x00, 0x03, 0x05, 0x01, 0xfa, 0xff, 0x01, 0x00,
  0xf8, 0xfe, 0x05, 0x04, 0xfc, 0xfd, 0xf8, 0x03, 0xfc, 0x03, 0xfa, 0x03,
  0x02, 0x04, 0xff, 0x04, 0x01, 0xf8, 0xfa, 0xfb, 0x02, 0xfd, 0x04, 0xfe,
  0x04, 0x03, 0x07, 0x06, 0x05, 0xfa, 0xfc, 0xfb, 0xfa, 0x04, 0x04, 0xf7,
  0xfe, 0xfd, 0xfb, 0xf9, 0x02, 0xfc, 0x01, 0xfe, 0x04, 0x01, 0xfa, 0xfa,
  0xfe, 0xff, 0xfc, 0xfa, 0xfd, 0x01, 0x02, 0x06, 0x04, 0x07, 0x02, 0x06,
  0x02, 0x02, 0xfd, 0xfa, 0xfe, 0x02, 0x00, 0xfe, 0x02, 0xfe, 0x02, 0x07,
  0xfe, 0x01, 0xfa, 0xfa, 0xfc, 0x00, 0xfa, 0xfa, 0x05, 0x04, 0x03, 0x08,
  0xfa, 0xfe, 0x04, 0xfc, 0xfb, 0x04, 0xfc, 0xf8, 0xfa, 0xf9, 0x07, 0x02,
  0x05, 0xff, 0xfe, 0x02, 0xfa, 0xfa, 0x03, 0x06, 0x03, 0x00, 0xfd, 0xfb,
  0x06, 0xfe, 0xff, 0x04, 0x01, 0x00, 0x03, 0x00, 0xfe, 0x02, 0x02, 0xfa,
  0x01, 0xfa, 0x03, 0x02, 0xfe, 0xfc, 0xff, 0xf9, 0x01, 0x03, 0xfc, 0x03,
  0xfb, 0xfc, 0xf9, 0xfd, 0x00, 0x06, 0xf9, 0x01, 0xfe, 0xfa, 0xfc, 0x07,
  0x00, 0xf9, 0x01, 0x02, 0x03, 0x05, 0x01, 0x02, 0x00, 0xfe, 0x05, 0xf9,
  0xfd, 0xfd, 0xfb, 0x06, 0xfc, 0xf9, 0xfc, 0x07, 0xfa, 0x01, 0xfd, 0xfb,
  0xfa, 0x03, 0xfb, 0xfc, 0x04, 0x07, 0xfb, 0x01, 0xff, 0xf9, 0x04, 0xfd,
  0xfa, 0x02, 0x01, 0x02, 0xfd, 0x04, 0xfe, 0xf9, 0x07, 0xf9, 0xfa, 0xfd,
  0xfd, 0x03, 0xfe, 0xfa, 0x05, 0xfc, 0xff, 0x06, 0xff, 0x07, 0xf9, 0xff,
  0x07, 0xfb, 0xfd, 0xfe, 0xfe, 0xfd, 0xf9, 0x04, 0x05, 0x02, 0x03, 0x02,
  0x03, 0xfd, 0x05, 0xf9, 0x00, 0xff, 0x00, 0x04, 0x00, 0xfc, 0x06, 0x01,
  0x06, 0xf9, 0x00, 0x04, 0xfb, 0xf9, 0xfc, 0x04, 0xff, 0x05, 0xfb, 0x06,
  0xfd, 0xfc, 0x07, 0x05, 0xfe, 0x06, 0x04, 0x00, 0x04, 0xf9, 0xff, 0x01,
  0x02, 0x05, 0xfd, 0x04, 0xfa, 0xff, 0x02, 0x03, 0x01, 0xfc, 0x03, 0x05,
  0x06, 0x01, 0x05, 0x00, 0xf9, 0xfb, 0xfe, 0x04, 0xff, 0xff, 0xfa, 0x05,
  0x05, 0xfc, 0x02, 0x01, 0xfa, 0x07, 0x02, 0x03, 0xfe, 0x03, 0x04, 0xff,
  0xfc, 0xfb, 0x02, 0xff, 0x01, 0x01, 0x01, 0x06, 0x07, 0x03, 0x04, 0x04,
  0xfa, 0xfd, 0xf9, 0xfa, 0x03, 0xf9, 0xfd, 0x07, 0x06, 0xfc, 0x02, 0x00,
  0x00, 0x07, 0x06, 0x00, 0xfc, 0xfd, 0xfd, 0x01, 0xfe, 0x00, 0x00, 0x06,
  0x03, 0xfb, 0x01, 0x00, 0x06, 0xff, 0x04, 0xff, 0xf8, 0x02, 0x07, 0x04,
  0xfb, 0x00, 0xf9, 0xfd, 0x03, 0x00, 0x00, 0x04, 0xfe, 0xff, 0x02, 0xf9,
  0xf9, 0xfb, 0x06, 0x03, 0x03, 0x01, 0xfd, 0xfb, 0xff, 0x01, 0x01, 0xfb,
  0xfb, 0x00, 0x07, 0xfd, 0xf9, 0x07, 0xfa, 0x03, 0xfa, 0x03, 0x01, 0xfe,
  0xff, 0x07, 0x04, 0x06, 0x02, 0xfb, 0x06, 0xfa, 0x07, 0x07, 0x06, 0xf9,
  0x06, 0xfc, 0x02, 0x03, 0xf9, 0x02, 0xf9, 0x07, 0x02, 0x04, 0xfe, 0x01,
  0x04, 0x02, 0xfb, 0xfc, 0x02, 0x00, 0xff, 0x01, 0x06, 0xfb, 0x02, 0xfc,
  0x06, 0x02, 0x00, 0x05, 0x00, 0x06, 0xfa, 0xfb, 0x02, 0xfa, 0xfa, 0x06,
  0xf9, 0xfe, 0x06, 0x02, 0x02, 0x07, 0xff, 0x07, 0xfa, 0x02, 0xfd, 0x02,
  0xfc, 0x03, 0xfa, 0x02, 0x03, 0xfb, 0x05, 0x04, 0xfe, 0xfe, 0x03, 0x00,
  0xfa, 0x01, 0xff, 0xf9, 0xfe, 0x07, 0xfa, 0xfe, 0xfb, 0xfe, 0xf9, 0xfc,
  0x04, 0x07, 0xff, 0xfd, 0xfc, 0x06, 0x00, 0xf9, 0xfc, 0x03, 0xfd, 0x02,
  0xfe, 0x03, 0x04, 0xfa, 0xf9, 0x07, 0x03, 0xfd, 0x03, 0xff, 0x07, 0xfb,
  0x04, 0x02, 0x03, 0xff, 0x06, 0x07, 0x00, 0xf9, 0x00, 0xfa, 0xfc, 0xfe,
  0x05, 0xfe, 0x03, 0xfe, 0x07, 0xff, 0x06, 0x05, 0xfd, 0xf9, 0xfe, 0x05,
  0xfd, 0x02, 0xfd, 0x04, 0x05, 0xfd, 0xf9, 0xfb, 0xfc, 0x02, 0xf9, 0xfd,
  0x06, 0xfb, 0xfc, 0xfa, 0x03, 0xf9, 0x01, 0x04, 0x07, 0xfb, 0x06, 0xff,
  0xff, 0x00, 0x00, 0xfb, 0xfa, 0x05, 0x00, 0xfc, 0xfa, 0x04, 0x07, 0xff,
  0xfb, 0x04, 0xfd, 0x05, 0xf9, 0x07, 0x05, 0x02, 0xff, 0xfb, 0x06, 0xf9,
  0xfe, 0x03, 0x04, 0x05, 0xff, 0xfe, 0xfe, 0xff, 0x03, 0x01, 0x03, 0x01,
  0x00, 0x03, 0x05, 0xfb, 0x01, 0xfb, 0x03, 0xfa, 0xff, 0xfe, 0xfe, 0x05,
  0x01, 0x05, 0x06, 0x01, 0x05, 0xff, 0x00, 0x05, 0x01, 0x01, 0xfa, 0xff,
  0xf9, 0x07, 0x02, 0x01, 0xfb, 0xfe, 0xfa, 0xfa, 0xfd, 0x05, 0xfa, 0x04,
  0x00, 0x06, 0x07, 0xfa, 0x03, 0x13, 0x03, 0xfe, 0xfd, 0x02, 0x07, 0xeb,
  0x0c, 0xfa, 0x05, 0xfe, 0x07, 0x05, 0x08, 0xfb, 0xff, 0x09, 0x05, 0xff,
  0x06, 0xfd, 0xd6, 0x10, 0x02, 0x05, 0x0c, 0x0c, 0x06, 0x05, 0xf1, 0xf1,
  0x0d, 0x09, 0x09, 0xfc, 0x0e, 0x00, 0x01, 0x05, 0xfc, 0xfa, 0x05, 0xfb,
  0x03, 0x01, 0xfd, 0xfc, 0x1f, 0x25, 0x05, 0x01, 0x00, 0xf7, 0xff, 0xf8,
  0x09, 0x0e, 0x20, 0xfc, 0x06, 0xfd, 0xfb, 0xed, 0x05, 0x18, 0x18, 0xf9,
  0x01, 0xfe, 0xf7, 0xdd, 0x18, 0xfa, 0x09, 0x09, 0x03, 0xf7, 0x0f, 0xfe,
  0x0a, 0xfc, 0x0b, 0x00, 0xfd, 0xf8, 0x03, 0x0a, 0x01, 0xf9, 0x0c, 0x0e,
  0x04, 0x04, 0x05, 0x03, 0x03, 0x04, 0x02, 0xe2, 0x02, 0x02, 0xfc, 0x18,
  0xfe, 0xf3, 0x03, 0xf4, 0x02, 0xfd, 0xfb, 0x00, 0x07, 0x08, 0xf7, 0xff,
  0xfc, 0xef, 0x05, 0xf9, 0x03, 0x0f, 0xfd, 0x18, 0x01, 0x06, 0x07, 0x03,
  0x05, 0x09, 0xf5, 0x03, 0xfa, 0xf9, 0xda, 0xf5, 0x0e, 0xfc, 0xe9, 0x09,
  0xff, 0x03, 0x07, 0x01, 0xf4, 0x06, 0xef, 0xfa, 0x00, 0x02, 0xf6, 0xd8,
  0xf5, 0x05, 0xe4, 0xf0, 0xfe, 0xfb, 0x05, 0xfd, 0xf0, 0xfe, 0xfc, 0x06,
  0xf1, 0xff, 0xff, 0xff, 0xf7, 0x01, 0xf8, 0xf5, 0xec, 0xf5, 0xfc, 0xfb,
  0x0c, 0x05, 0xf4, 0x03, 0xf0, 0xfa, 0x03, 0xfb, 0xff, 0x04, 0xf9, 0xf3,
  0xf7, 0x17, 0x0a, 0xfc, 0x00, 0x1a, 0x0b, 0x03, 0x06, 0xfe, 0x1f, 0x21,
  0x15, 0x07, 0x1a, 0x10, 0xfe, 0x0a, 0x04, 0x06, 0x0f, 0x0a, 0x13, 0x00,
  0x07, 0x07, 0x1d, 0x1a, 0xee, 0x03, 0x10, 0x0a, 0x03, 0x06, 0xfa, 0xef,
  0xe0, 0xfa, 0x10, 0xf5, 0xee, 0xf4, 0xf1, 0x00, 0xfa, 0x0d, 0xe8, 0x04,
  0xef, 0xf7, 0x00, 0xe4, 0xf1, 0xff, 0x01, 0xdb, 0xf4, 0xe2, 0xf9, 0x01,
  0xf3, 0xf6, 0xfc, 0xfc, 0xf7, 0xfb, 0x02, 0xfe, 0x0f, 0x12, 0x0b, 0xfd,
  0x07, 0xf9, 0xfb, 0xda, 0x0f, 0x00, 0x02, 0x09, 0xfa, 0x03, 0x09, 0xff,
  0x0b, 0x0a, 0x0b, 0xf9, 0xfb, 0xff, 0x01, 0xff, 0xfd, 0x04, 0x0f, 0x0a,
  0x04, 0xfe, 0xe7, 0xf4, 0xf5, 0xea, 0x02, 0xf8, 0xfd, 0x04, 0xfa, 0xfb,
  0xfe, 0x00, 0x00, 0xf6, 0xf8, 0xfc, 0xfd, 0xfc, 0xfd, 0xf7, 0x00, 0xfe,
  0xfe, 0x04, 0x01, 0x02, 0xff, 0x03, 0xf9, 0xff, 0xf5, 0x03, 0xf4, 0x04,
  0x15, 0x13, 0x22, 0x00, 0x05, 0x02, 0x2a, 0xfc, 0x16, 0x00, 0x14, 0xff,
  0x01, 0xf8, 0x0a, 0x08, 0x16, 0x0c, 0x00, 0x01, 0x06, 0x02, 0x05, 0x06,
  0x0c, 0x01, 0x33, 0x12, 0xfa, 0xfc, 0x0b, 0x05, 0xfe, 0x00, 0xf7, 0xfc,
  0xff, 0x01, 0xfc, 0x0c, 0xfd, 0x08, 0xfc, 0xf3, 0xfc, 0xfc, 0xf9, 0xfb,
  0x01, 0xfa, 0xf7, 0x01, 0xf9, 0xf9, 0xfd, 0xfb, 0x00, 0xff, 0xf9, 0x01,
  0xfb, 0x00, 0xf8, 0xfc, 0xee, 0xb2, 0xb0, 0x06, 0xfa, 0xf9, 0x05, 0xe3,
  0xf2, 0xfb, 0xd2, 0xf5, 0xff, 0xfb, 0xfd, 0xf4, 0xf7, 0x0a, 0xfe, 0x03,
  0x04, 0xf9, 0xfc, 0xc0, 0xf9, 0x02, 0xe9, 0x0a, 0x00, 0x01, 0xfa, 0x05,
  0xfe, 0x03, 0x0e, 0x05, 0x0c, 0xf5, 0x01, 0x05, 0x08, 0xfd, 0x02, 0xfc,
  0x12, 0xfd, 0xff, 0x08, 0x04, 0x02, 0x10, 0xfe, 0x0a, 0xfa, 0x02, 0x07,
  0xff, 0xe8, 0x0a, 0x06, 0x0a, 0xea, 0xef, 0x09, 0xf9, 0x1b, 0x0d, 0x08,
  0xfb, 0xfc, 0x1e, 0x27, 0x09, 0x03, 0x1e, 0x0f, 0xfe, 0x06, 0xf4, 0x01,
  0x0c, 0x0b, 0x12, 0x00, 0x04, 0x07, 0x27, 0x20, 0x11, 0x00, 0x1a, 0x14,
  0xfd, 0x08, 0x05, 0xf2, 0x0c, 0x08, 0x1c, 0xed, 0x10, 0xf0, 0x01, 0x18,
  0x0a, 0xfb, 0x07, 0x04, 0x0d, 0x02, 0x06, 0xe8, 0x06, 0x02, 0x01, 0xf3,
  0x12, 0xf9, 0x0a, 0x02, 0x0a, 0xed, 0x04, 0x08, 0x10, 0xfb, 0x03, 0xf1,
  0xdd, 0xf8, 0x08, 0xfb, 0x02, 0x06, 0xfc, 0x2f, 0xf0, 0xfa, 0x0a, 0x0a,
  0xfb, 0xf9, 0xe7, 0x06, 0x07, 0xff, 0xf5, 0xfb, 0x02, 0xfd, 0x1b, 0x04,
  0x03, 0x0a, 0x02, 0xdd, 0xfd, 0x05, 0x20, 0x08, 0xdd, 0xf4, 0xf6, 0x00,
  0xe9, 0x08, 0xfd, 0xfd, 0xfc, 0x07, 0xfa, 0x03, 0xee, 0xfc, 0x13, 0x03,
  0xf7, 0xee, 0x00, 0x09, 0x01, 0x07, 0xfc, 0xfb, 0xff, 0x02, 0xec, 0x02,
  0xfe, 0xfc, 0x06, 0x0f, 0xf6, 0xf2, 0xe4, 0x03, 0x0d, 0x00, 0x08, 0x1c,
  0xde, 0x0c, 0x0a, 0x02, 0xfb, 0x00, 0xf4, 0xfb, 0xf0, 0x0c, 0xe7, 0x09,
  0x01, 0x06, 0x04, 0x05, 0xee, 0x05, 0xbd, 0x06, 0xff, 0x03, 0xff, 0xf5,
  0x03, 0x04, 0xff, 0x0f, 0xf6, 0xf2, 0xfa, 0xdb, 0x02, 0x02, 0xfb, 0xf9,
  0x04, 0x07, 0xfb, 0xfd, 0xf6, 0xfd, 0x1e, 0xfd, 0xfa, 0x10, 0x03, 0x0e,
  0x00, 0xfa, 0xff, 0x01, 0x01, 0xfd, 0xf7, 0x06, 0x0b, 0x23, 0x20, 0xfe,
  0xf9, 0x0c, 0x04, 0x05, 0xfe, 0x07, 0x09, 0xf8, 0x00, 0x09, 0x01, 0xff,
  0x07, 0xf3, 0x18, 0xfc, 0x03, 0xfe, 0x04, 0x0d, 0x17, 0xfd, 0xfe, 0x07,
  0x04, 0x0b, 0x04, 0x06, 0x1c, 0x02, 0x06, 0xf6, 0x02, 0x0b, 0x0e, 0x0a,
  0x03, 0xfd, 0x0f, 0x0f, 0x11, 0x06, 0xff, 0x06, 0xf2, 0xfd, 0x09, 0xff,
  0x0b, 0xff, 0xf9, 0xfc, 0x01, 0x15, 0x05, 0x08, 0x0a, 0xfe, 0xf4, 0x09,
  0xec, 0xf6, 0xfb, 0x03, 0xf9, 0x07, 0xd8, 0xbb, 0xf4, 0x00, 0xf5, 0x0a,
  0xfa, 0xf9, 0x02, 0x02, 0x0e, 0x01, 0xf6, 0xfc, 0x01, 0x09, 0xcd, 0xf5,
  0x04, 0x01, 0x04, 0xfc, 0x03, 0x03, 0xff, 0x02, 0x0f, 0x06, 0xfc, 0xfd,
  0x05, 0xf7, 0x0c, 0x05, 0x09, 0xf8, 0x04, 0xf8, 0x09, 0x01, 0x09, 0x05,
  0x01, 0x07, 0xf6, 0x29, 0x0b, 0x16, 0x04, 0xfb, 0x06, 0x07, 0xe9, 0xfc,
  0x00, 0xfa, 0xff, 0xfb, 0xfb, 0x03, 0x01, 0x03, 0x01, 0xf9, 0xfa, 0x0f,
  0xff, 0xf9, 0xfc, 0xfe, 0xff, 0x03, 0x00, 0xfa, 0x00, 0x00, 0x05, 0xfb,
  0xfe, 0x01, 0xde, 0x07, 0xfb, 0xfc, 0xff, 0xf7, 0xfb, 0x05, 0x02, 0x06,
  0x17, 0x0f, 0xf9, 0xfe, 0x0b, 0xfe, 0x01, 0x04, 0x06, 0x04, 0xfd, 0x05,
  0x06, 0x03, 0xff, 0xfe, 0x02, 0x0c, 0x01, 0xfd, 0x0b, 0xf8, 0x05, 0xfe,
  0x0a, 0x07, 0x11, 0xfd, 0x09, 0x01, 0x0e, 0xfb, 0x01, 0x01, 0x0c, 0x05,
  0xfe, 0xfb, 0x02, 0x06, 0x04, 0x02, 0xf6, 0x03, 0x03, 0xfe, 0x00, 0xfb,
  0xf7, 0xfb, 0xf8, 0xfe, 0xfb, 0xfe, 0x03, 0x09, 0x00, 0xfa, 0xee, 0x0c,
  0x02, 0x02, 0x03, 0xf7, 0x05, 0x0a, 0x09, 0xf0, 0x06, 0xf7, 0x05, 0xfe,
  0x06, 0xf6, 0x05, 0x0c, 0x09, 0x04, 0x01, 0x04, 0x01, 0x07, 0x03, 0x08,
  0x00, 0xf9, 0x03, 0xf9, 0x06, 0x05, 0x08, 0x0c, 0x08, 0xfb, 0x00, 0x07,
  0x07, 0x2b, 0x31, 0xfa, 0x02, 0xfb, 0xef, 0x0b, 0x0e, 0xfd, 0x0a, 0x0e,
  0xf9, 0xfd, 0xfa, 0x09, 0xff, 0x07, 0xf0, 0xff, 0xfb, 0x00, 0x06, 0x19,
  0xf6, 0xf9, 0x00, 0xf7, 0xfe, 0x07, 0xfe, 0xfc, 0x0e, 0xf3, 0xef, 0x10,
  0xea, 0x0e, 0x00, 0x00, 0xfb, 0x05, 0xfe, 0xfa, 0xe6, 0x02, 0x09, 0xf8,
  0x09, 0x00, 0xf3, 0x01, 0xef, 0xfe, 0xfc, 0xf4, 0x02, 0x0c, 0xf3, 0xfd,
  0xf9, 0x1e, 0x19, 0xf1, 0x00, 0x04, 0x0b, 0x02, 0x08, 0xf8, 0x1e, 0xfd,
  0x06, 0x05, 0x14, 0x05, 0xf9, 0x03, 0x09, 0x08, 0x09, 0x09, 0x0b, 0x04,
  0x05, 0x02, 0xfd, 0x07, 0xec, 0x05, 0x0c, 0x07, 0x04, 0xff, 0xfb, 0x01,
  0xef, 0xfd, 0x06, 0x06, 0xef, 0xfd, 0xf9, 0xf9, 0xf2, 0x0c, 0xf6, 0x0c,
  0xf5, 0xfc, 0xef, 0x02, 0xee, 0xf7, 0x05, 0xec, 0xf0, 0xe5, 0xf5, 0x06,
  0xf0, 0xf8, 0x0b, 0x03, 0xef, 0x02, 0xf7, 0xfe, 0x07, 0xfc, 0xfe, 0x02,
  0x00, 0xfa, 0xfc, 0xfa, 0x04, 0x02, 0xfd, 0x01, 0x01, 0x02, 0x01, 0xfd,
  0xf9, 0x01, 0x04, 0x03, 0x03, 0xfb, 0x04, 0xfa, 0x04, 0x01, 0x04, 0x03,
  0xfd, 0xfd, 0xfc, 0xfb, 0xfe, 0xfc, 0xff, 0x02, 0x05, 0x01, 0xf9, 0x02,
  0x06, 0xfc, 0xfb, 0xfb, 0x06, 0xf9, 0x06, 0xfb, 0x03, 0x03, 0xfa, 0xf9,
  0xff, 0x07, 0x01, 0xfa, 0x03, 0xfc, 0x03, 0x00, 0x03, 0x00, 0x02, 0xfd,
  0x03, 0xfa, 0xfe, 0xf9, 0x07, 0xfd, 0xfb, 0x00, 0xfb, 0x07, 0x03, 0xfc,
  0xf9, 0xf9, 0x00, 0x03, 0xfb, 0x04, 0x03, 0xfd, 0xff, 0x06, 0xfb, 0x07,
  0xff, 0x01, 0x05, 0x05, 0x00, 0x00, 0x03, 0x06, 0xfa, 0xfe, 0xfb, 0xfe,
  0x00, 0x06, 0x04, 0xff, 0xfa, 0xff, 0x07, 0xfc, 0xfb, 0x02, 0xf9, 0xfa,
  0xfe, 0x02, 0xfc, 0xfb, 0xfd, 0xfb, 0x04, 0xfc, 0xfa, 0x06, 0xfb, 0x07,
  0xff, 0x07, 0x04, 0x03, 0x01, 0xfe, 0x06, 0x07, 0xfc, 0x06, 0x01, 0xfd,
  0x01, 0xfa, 0xfb, 0xf9, 0xf9, 0xf9, 0x01, 0x07, 0x01, 0xfa, 0xfc, 0xfd,
  0xff, 0x04, 0xfd, 0x01, 0xf9, 0xfc, 0x04, 0x06, 0x00, 0x00, 0x06, 0xfe,
  0x03, 0x01, 0xfb, 0xfe, 0x01, 0xfa, 0xfd, 0x06, 0x02, 0xfc, 0x02, 0xfd,
  0x02, 0xff, 0x06, 0xfb, 0xfd, 0x00, 0xf9, 0xfa, 0xfd, 0x07, 0x03, 0xfd,
  0x04, 0xff, 0x05, 0xfb, 0xff, 0x00, 0xfe, 0xfd, 0x00, 0x07, 0xfa, 0xfa,
  0x02, 0xff, 0xfd, 0x04, 0x06, 0x05, 0x02, 0xfe, 0xff, 0x02, 0xfe, 0x03,
  0xfc, 0xfc, 0x03, 0x02, 0xfc, 0xfc, 0x05, 0x01, 0x05, 0x00, 0xfb, 0x06,
  0xfc, 0x06, 0x02, 0xf9, 0x04, 0xfb, 0xf9, 0xfb, 0x03, 0x01, 0xfa, 0x04,
  0x04, 0x02, 0x02, 0xfa, 0x01, 0x07, 0x00, 0x04, 0xfe, 0x01, 0xfe, 0x01,
  0xfb, 0x02, 0x02, 0x07, 0xfe, 0x05, 0x02, 0xfb, 0xfe, 0xfa, 0xfb, 0xfd,
  0x1d, 0xfb, 0xf9, 0x05, 0xfe, 0xff, 0xfa, 0xdb, 0x00, 0x06, 0xf4, 0xf1,
  0x01, 0xff, 0x15, 0xfb, 0xf5, 0x04, 0xf9, 0xf7, 0xfe, 0xf6, 0x0b, 0xe4,
  0x07, 0xfd, 0x06, 0x1b, 0x01, 0xf9, 0xec, 0xfa, 0x1b, 0x12, 0x05, 0xff,
  0x05, 0x05, 0x02, 0xfd, 0xfe, 0x00, 0x06, 0x07, 0x15, 0x00, 0xf9, 0x05,
  0xf4, 0x04, 0xfe, 0xf9, 0x03, 0xfd, 0x06, 0xfd, 0x06, 0xfa, 0xf7, 0xfb,
  0xfb, 0x01, 0xf8, 0x07, 0xfc, 0xfe, 0x13, 0xf7, 0x04, 0xf9, 0xfa, 0x03,
  0x09, 0xfe, 0x01, 0xf7, 0x01, 0xff, 0x08, 0x04, 0x0e, 0xf6, 0x16, 0xf8,
  0x06, 0xfd, 0xfd, 0xe7, 0x09, 0xff, 0x57, 0xef, 0x00, 0xf5, 0xfa, 0x0c,
  0x02, 0x01, 0x0a, 0x0b, 0x03, 0x0c, 0x07, 0x19, 0x00, 0x0a, 0x00, 0x07,
  0x09, 0x02, 0xfb, 0x06, 0x03, 0x07, 0xf4, 0xf9, 0x08, 0xfc, 0x03, 0x04,
  0x02, 0x01, 0xfe, 0xf5, 0x02, 0x01, 0x07, 0xff, 0xf5, 0xa4, 0xbf, 0x05,
  0xfd, 0xfa, 0x07, 0xea, 0xed, 0x01, 0xd9, 0xf4, 0xfc, 0xfa, 0xf8, 0xf6,
  0xf1, 0xf8, 0xf9, 0xf7, 0x06, 0xf4, 0x03, 0xc8, 0xf1, 0xf5, 0xe8, 0xf7,
  0xfb, 0xfb, 0xf8, 0x03, 0x0b, 0x03, 0x06, 0xfd, 0xff, 0xf7, 0x00, 0xfe,
  0xfb, 0x09, 0xf5, 0xfa, 0x05, 0xfd, 0xf3, 0xfb, 0x02, 0x03, 0x09, 0x00,
  0xfc, 0xfa, 0xfc, 0x03, 0xfd, 0xf9, 0x04, 0xfb, 0xfd, 0xe5, 0x00, 0x08,
  0x00, 0x03, 0x02, 0x06, 0x05, 0x07, 0xf5, 0x18, 0xf7, 0xfd, 0x00, 0xf9,
  0xfa, 0xf9, 0xfa, 0xfb, 0xf8, 0xf5, 0xfc, 0x03, 0xfd, 0xf7, 0x0e, 0x04,
  0x11, 0x01, 0xfb, 0xff, 0xfd, 0xfa, 0x09, 0xfe, 0xdd, 0xf6, 0x0c, 0xfa,
  0x00, 0x12, 0x03, 0x14, 0xfa, 0xfd, 0x0c, 0x0e, 0x02, 0xfc, 0x07, 0xef,
  0x04, 0x05, 0x0e, 0xec, 0x03, 0x14, 0x00, 0x07, 0xfa, 0xec, 0x01, 0x0c,
  0xfe, 0x08, 0x04, 0xee, 0x09, 0xdb, 0xe5, 0x09, 0xff, 0x07, 0xfb, 0x06,
  0xed, 0xfb, 0xf0, 0xf2, 0x02, 0xfe, 0xfb, 0xfb, 0xe8, 0xe3, 0xf5, 0x05,
  0x02, 0x04, 0x1c, 0xe9, 0xfe, 0x00, 0xe9, 0xf6, 0x03, 0xfc, 0x0a, 0x06,
  0x04, 0x0f, 0x05, 0x08, 0x03, 0x06, 0x07, 0x07, 0x00, 0x08, 0x0d, 0x05,
  0x06, 0x01, 0x08, 0x00, 0xe8, 0xdf, 0x03, 0x05, 0x09, 0x05, 0x05, 0x08,
  0xf7, 0xfd, 0xec, 0x04, 0x0a, 0x01, 0x02, 0x11, 0xe4, 0xd6, 0xe8, 0x05,
  0x03, 0x02, 0xef, 0x34, 0xea, 0x03, 0xe3, 0xfb, 0x06, 0x08, 0xed, 0x00,
  0xe5, 0xee, 0xf5, 0xf9, 0xff, 0x01, 0xfc, 0xeb, 0xf6, 0xfe, 0xfd, 0xeb,
  0xfb, 0xf9, 0xf2, 0xfd, 0x03, 0x01, 0x04, 0x07, 0x0b, 0xf2, 0x0c, 0xf3,
  0x0c, 0x04, 0x08, 0x14, 0x04, 0x07, 0x03, 0x09, 0x02, 0xfd, 0x0f, 0xfb,
  0x09, 0x0b, 0x03, 0x0a, 0x07, 0xf1, 0xfb, 0xed, 0x05, 0xfc, 0xff, 0x0c,
  0xf9, 0xb5, 0xee, 0x01, 0xfd, 0x01, 0xfa, 0xf9, 0xee, 0x05, 0xfe, 0xe8,
  0xff, 0x03, 0xf7, 0xf9, 0xf6, 0xf3, 0x0d, 0x00, 0x05, 0xff, 0xfe, 0xe3,
  0xf7, 0xfd, 0x13, 0xfe, 0xf9, 0xfe, 0xf6, 0x06, 0xf4, 0x03, 0x09, 0xf5,
  0x0d, 0x02, 0x0f, 0x05, 0x07, 0x04, 0x06, 0x05, 0x09, 0x01, 0xff, 0x03,
  0x00, 0x02, 0x0b, 0x04, 0x06, 0xfe, 0x04, 0x08, 0x03, 0xfe, 0x0d, 0x01,
  0x0c, 0xeb, 0xf4, 0x0b, 0xfa, 0xda, 0xdf, 0x08, 0xff, 0x04, 0xd9, 0xe7,
  0xf0, 0xfc, 0xec, 0xec, 0x02, 0xf6, 0xfd, 0xfc, 0xe5, 0xe7, 0xe0, 0x00,
  0xfd, 0x04, 0xf6, 0xf0, 0x11, 0xf8, 0xe4, 0xec, 0xfb, 0xfd, 0x0a, 0x0b,
  0x0e, 0x05, 0xed, 0x0a, 0x09, 0x15, 0x0c, 0x06, 0x05, 0xed, 0x0c, 0x07,
  0x0d, 0xfc, 0x08, 0x15, 0x0d, 0x09, 0x0a, 0xfd, 0x08, 0xf3, 0x07, 0x07,
  0x0d, 0xff, 0x11, 0x01, 0x04, 0x02, 0x03, 0xe2, 0xe5, 0xf4, 0xf9, 0x07,
  0x01, 0xfd, 0x04, 0x2a, 0xed, 0xf5, 0x02, 0x01, 0xf9, 0xfe, 0xe9, 0x09,
  0xff, 0xfc, 0xf3, 0xfe, 0x02, 0x09, 0x13, 0x0d, 0xf9, 0x06, 0xed, 0xec,
  0x02, 0x05, 0x14, 0x05, 0xef, 0x01, 0x00, 0x0b, 0xf8, 0xfc, 0x03, 0xfd,
  0x02, 0xff, 0x06, 0xff, 0xfe, 0xfb, 0x0a, 0x08, 0x11, 0xff, 0x05, 0xfc,
  0x08, 0x03, 0x05, 0x05, 0x05, 0x0b, 0x0f, 0x05, 0xff, 0xfa, 0x07, 0xff,
  0xf4, 0xed, 0xd5, 0x03, 0xf4, 0x04, 0xd3, 0x00, 0xe1, 0xff, 0xef, 0xf9,
  0xfb, 0x02, 0xf4, 0xfb, 0xed, 0xf8, 0xf0, 0xfe, 0x02, 0xfc, 0xfe, 0x06,
  0xf1, 0x0a, 0xb4, 0xfc, 0x05, 0x06, 0x01, 0xfc, 0x0f, 0x03, 0xfc, 0xe0,
  0x07, 0xfa, 0xfc, 0xe6, 0x04, 0xfb, 0x01, 0xf6, 0x0a, 0x09, 0xfd, 0x04,
  0x06, 0x07, 0xfd, 0x02, 0x03, 0xfa, 0x00, 0x07, 0x02, 0x09, 0xfd, 0x02,
  0x0a, 0xff, 0x09, 0x05, 0x06, 0x4d, 0x50, 0x02, 0xfd, 0x02, 0xd8, 0x0e,
  0x09, 0x0a, 0x29, 0x0c, 0x02, 0x09, 0x00, 0x07, 0x15, 0xf9, 0x09, 0x02,
  0xff, 0x0b, 0xf7, 0x24, 0x18, 0x02, 0x1c, 0x07, 0x00, 0x02, 0x0c, 0x04,
  0xfc, 0xf9, 0xf6, 0xfa, 0xf6, 0x0e, 0x09, 0x04, 0x03, 0x06, 0x0b, 0x0a,
  0xf3, 0x08, 0x08, 0x03, 0x05, 0x00, 0xfb, 0x0a, 0xfc, 0x09, 0x09, 0x00,
  0x06, 0x07, 0xf7, 0xfe, 0x02, 0x1c, 0x09, 0x02, 0xfb, 0xef, 0xe9, 0xfe,
  0x02, 0xfa, 0xf2, 0xcf, 0xfd, 0xf5, 0xe7, 0xf9, 0x07, 0xfb, 0x0d, 0xff,
  0xfc, 0xf7, 0xf3, 0x09, 0x06, 0xfe, 0xdc, 0xf4, 0xf1, 0xfb, 0xea, 0xe8,
  0xfb, 0xff, 0x02, 0x11, 0xf7, 0x00, 0xe7, 0x0f, 0xfa, 0xfc, 0xfd, 0xe9,
  0xfc, 0x06, 0xfa, 0xed, 0x01, 0x01, 0x04, 0x13, 0x06, 0x02, 0xf7, 0x00,
  0xfd, 0xf0, 0xfd, 0xf7, 0x08, 0x1d, 0x00, 0xef, 0xf4, 0xf6, 0x08, 0xfc,
  0x23, 0xfc, 0xfd, 0xff, 0x04, 0x00, 0x03, 0xfb, 0x06, 0x03, 0xfb, 0xfb,
  0x02, 0x02, 0x0d, 0xfe, 0xf0, 0xef, 0xf9, 0x07, 0xfb, 0xfd, 0x01, 0xe4,
  0x01, 0xfa, 0xf4, 0x1b, 0x07, 0xfc, 0xf5, 0xff, 0x1f, 0x1b, 0x03, 0xfa,
  0x15, 0xfa, 0x02, 0x0a, 0xfd, 0x06, 0x0b, 0x02, 0x18, 0x00, 0xfa, 0x04,
  0x06, 0x03, 0x06, 0x01, 0xfc, 0x08, 0x01, 0x03, 0xff, 0xfe, 0x0b, 0x07,
  0x0d, 0x08, 0xfe, 0x01, 0x00, 0xe7, 0x0d, 0x06, 0xfd, 0xfd, 0xbd, 0x2a,
  0x07, 0x04, 0xf7, 0xff, 0xfd, 0x01, 0xfb, 0xfa, 0xfb, 0xf2, 0x11, 0x00,
  0xff, 0x03, 0x05, 0xea, 0x03, 0xfd, 0x39, 0x01, 0xfa, 0xfb, 0xf9, 0x02,
  0x09, 0x0b, 0x04, 0x17, 0x01, 0x0a, 0x04, 0x18, 0x01, 0x0d, 0xff, 0x0a,
  0x06, 0xfe, 0x06, 0x00, 0xfe, 0x06, 0xf9, 0x00, 0x04, 0x06, 0xff, 0xfb,
  0x01, 0xfc, 0x06, 0x09, 0x05, 0x03, 0x00, 0xfe, 0xfc, 0xa3, 0xb6, 0x0a,
  0x03, 0xfb, 0x17, 0xf2, 0xf2, 0xfa, 0xde, 0xee, 0x01, 0xfe, 0x05, 0xf5,
  0xdf, 0xf8, 0xf1, 0x04, 0xfd, 0x03, 0x06, 0xbc, 0xf1, 0xfc, 0xea, 0xfc,
  0xf9, 0x01, 0xf4, 0xfe, 0x0e, 0xfc, 0xf1, 0x16, 0xf9, 0x08, 0xf7, 0xfa,
  0xf8, 0x00, 0xf6, 0xf6, 0xe9, 0x09, 0x02, 0xfb, 0x05, 0x08, 0xfc, 0xfc,
  0xfc, 0x03, 0xfd, 0xf6, 0xfe, 0x04, 0x04, 0xfd, 0xf5, 0xfe, 0x10, 0x03,
  0xf6, 0x07, 0x0d, 0xfd, 0x00, 0x02, 0xf1, 0x0f, 0x0b, 0x00, 0x23, 0x0c,
  0xfe, 0xfc, 0xfd, 0x0a, 0x00, 0x03, 0x0b, 0xf8, 0x04, 0x02, 0x0b, 0x06,
  0x0b, 0x05, 0x05, 0x11, 0x01, 0x01, 0x09, 0xfd, 0xe8, 0xf3, 0x08, 0x01,
  0xf9, 0x0f, 0xfc, 0x0e, 0x03, 0x07, 0xfa, 0x13, 0xeb, 0x00, 0x06, 0xfd,
  0x02, 0xfa, 0x0d, 0x0c, 0xf3, 0x1b, 0xf5, 0x11, 0xf6, 0xf9, 0xfd, 0x0e,
  0xfa, 0x04, 0xf4, 0xf7, 0x10, 0x0f, 0x0a, 0x06, 0x00, 0x09, 0x05, 0xb8,
  0x17, 0x07, 0x04, 0x00, 0xfc, 0x01, 0x17, 0x02, 0x0b, 0x05, 0x02, 0x07,
  0x05, 0xfd, 0x21, 0x05, 0x05, 0x00, 0x04, 0x23, 0x06, 0x09, 0xe8, 0xf3,
  0xf8, 0xe9, 0x06, 0xfe, 0x02, 0x07, 0xfe, 0xfd, 0xf9, 0x04, 0xf7, 0xfd,
  0xfb, 0xfa, 0xf4, 0xfd, 0xfb, 0x1b, 0x06, 0xfe, 0x04, 0x06, 0xfe, 0xfd,
  0x0e, 0xff, 0xfd, 0x00, 0xf7, 0x05, 0xf1, 0x01, 0x16, 0x13, 0xfb, 0xfe,
  0xfb, 0x01, 0xf2, 0xad, 0x2c, 0xf7, 0x0c, 0x03, 0x06, 0xfb, 0x13, 0x06,
  0x0f, 0xfc, 0x1d, 0x01, 0xfa, 0x04, 0xf9, 0x0c, 0x11, 0x06, 0x23, 0xf0,
  0x06, 0x01, 0x07, 0x04, 0xf0, 0xf8, 0x01, 0x03, 0xf9, 0x11, 0xf9, 0x1a,
  0xfb, 0x15, 0x00, 0x02, 0xfe, 0x01, 0x00, 0xfd, 0xfb, 0x00, 0xf9, 0xfe,
  0x03, 0xfb, 0xf9, 0xf8, 0x02, 0x03, 0x0b, 0x13, 0x02, 0x02, 0xfb, 0xff,
  0x01, 0x3a, 0x14, 0x02, 0xfe, 0xfc, 0xff, 0x06, 0x0f, 0x08, 0x08, 0x18,
  0x04, 0x04, 0xff, 0x05, 0x12, 0x0a, 0x0c, 0x04, 0xff, 0x07, 0x01, 0x29,
  0x0d, 0x09, 0x0b, 0x00, 0x07, 0x07, 0x0b, 0x08, 0xe6, 0xff, 0xfb, 0x00,
  0x00, 0xfa, 0xf8, 0x00, 0xf0, 0x00, 0xfb, 0x00, 0x04, 0x02, 0xfc, 0xf7,
  0xfa, 0xf5, 0xf4, 0x00, 0xf6, 0xfe, 0xf8, 0xf8, 0xf5, 0x08, 0xfa, 0x01,
  0xf4, 0x07, 0xfa, 0xfd, 0x17, 0x19, 0x08, 0x03, 0xfb, 0x06, 0x1c, 0x40,
  0x13, 0x02, 0x0e, 0x05, 0xfd, 0x0f, 0xfd, 0xfb, 0x02, 0x08, 0x09, 0x01,
  0xf9, 0x04, 0x15, 0x08, 0x10, 0xfd, 0x14, 0x17, 0x05, 0xff, 0xff, 0xee,
  0x05, 0xf9, 0x19, 0xff, 0xf8, 0xf2, 0x00, 0x02, 0xfb, 0x1e, 0xf4, 0x09,
  0xfc, 0x06, 0xfd, 0x07, 0xf6, 0x01, 0x0b, 0xf0, 0xfa, 0x00, 0xf8, 0x0a,
  0xf8, 0x0e, 0x0d, 0xfe, 0xf8, 0x04, 0xf7, 0x35, 0x04, 0x02, 0x05, 0xfe,
  0x00, 0x05, 0x03, 0xff, 0xfb, 0xfe, 0xfa, 0x05, 0xf9, 0x06, 0xfa, 0xfe,
  0xfb, 0xfd, 0x01, 0x02, 0xfe, 0x00, 0xf9, 0xfc, 0xfe, 0x05, 0xf9, 0x03,
  0xfb, 0xfc, 0x07, 0xfd, 0x04, 0x04, 0xff, 0xfd, 0x03, 0x07, 0xff, 0x05,
  0x00, 0x03, 0x05, 0xf9, 0x04, 0xfe, 0xff, 0x03, 0xfb, 0x06, 0xfd, 0xfb,
  0xfa, 0x01, 0xfb, 0xfa, 0xfb, 0x05, 0x02, 0x02, 0xf9, 0xfa, 0x01, 0xfc,
  0x00, 0x06, 0x00, 0xfa, 0xfc, 0x06, 0x07, 0xfc, 0x01, 0xfd, 0xff, 0x02,
  0xfb, 0x05, 0xff, 0xfa, 0xfa, 0x07, 0xff, 0x01, 0x03, 0xfb, 0xfb, 0x06,
  0xfa, 0xfe, 0xfd, 0x05, 0x07, 0x07, 0xfe, 0x05, 0x04, 0xfa, 0x00, 0x05,
  0xfe, 0xfa, 0x05, 0x01, 0x05, 0x01, 0x06, 0xfe, 0xfd, 0x02, 0x03, 0x02,
  0xfd, 0x03, 0x02, 0xfd, 0x07, 0xfb, 0x02, 0x00, 0x03, 0x01, 0xfc, 0xf9,
  0xfc, 0xf9, 0xfa, 0x05, 0x03, 0xfd, 0x02, 0xfa, 0x07, 0xfa, 0x07, 0x05,
  0x02, 0xfb, 0xff, 0x04, 0x03, 0xf9, 0x06, 0xfe, 0xf9, 0x06, 0x06, 0xfb,
  0xff, 0x02, 0xff, 0x00, 0xf9, 0x04, 0x01, 0x04, 0x05, 0x02, 0xfc, 0x06,
  0xf9, 0xff, 0xfc, 0xf9, 0x02, 0x03, 0xfe, 0xff, 0x03, 0x05, 0xff, 0x02,
  0xfd, 0x00, 0xff, 0xfd, 0x07, 0xf9, 0x00, 0x06, 0x01, 0xff, 0xfe, 0x06,
  0xf9, 0xf9, 0xfd, 0xfa, 0xff, 0xfd, 0x01, 0x06, 0x01, 0x07, 0xfb, 0x02,
  0x04, 0xfa, 0x01, 0xfc, 0x04, 0x04, 0xff, 0x05, 0xfa, 0x07, 0xfe, 0x01,
  0x02, 0x03, 0xfa, 0x00, 0x05, 0x00, 0x00, 0xfb, 0xfc, 0xf9, 0xfd, 0x04,
  0x06, 0xfa, 0xfe, 0x03, 0xf9, 0x06, 0xf9, 0x03, 0xfe, 0xf9, 0xfd, 0x01,
  0xfd, 0x01, 0x04, 0xfc, 0xff, 0xfb, 0x01, 0xfa, 0x00, 0x07, 0xfa, 0x00,
  0xfc, 0x01, 0xfa, 0x05, 0x05, 0x07, 0xfe, 0xfb, 0xfc, 0xfb, 0x01, 0xff,
  0x05, 0xf9, 0x04, 0x05, 0xfe, 0xfd, 0xff, 0xff, 0x00, 0x07, 0xfa, 0x00,
  0xfa, 0xf9, 0xfc, 0x07, 0x07, 0x01, 0xfc, 0x04, 0xfd, 0xfe, 0x04, 0xf9,
  0x07, 0xfe, 0x04, 0xfc, 0xfe, 0x04, 0xf9, 0xfd, 0xfc, 0x04, 0x07, 0x04,
  0x01, 0x02, 0xfb, 0xff, 0x03, 0xfc, 0x03, 0x05, 0xff, 0x03, 0x05, 0x03,
  0x02, 0xfe, 0xfb, 0xff, 0xfe, 0xfc, 0xfe, 0xfe, 0xfc, 0xfe, 0xfc, 0xf9,
  0x02, 0xfd, 0x00, 0x07, 0x00, 0x02, 0xfd, 0xf9, 0x03, 0xfb, 0x03, 0xfe,
  0xfb, 0x04, 0xfe, 0xf9, 0xfc, 0xfe, 0x06, 0xfa, 0xff, 0xf9, 0x06, 0xfd,
  0x02, 0x04, 0x00, 0xf9, 0x01, 0x06, 0xf9, 0x02, 0xf9, 0x00, 0xf9, 0xfb,
  0xff, 0x06, 0x03, 0x06, 0x02, 0x07, 0x01, 0x07, 0xfa, 0xfd, 0x02, 0x05,
  0x05, 0xfd, 0xfb, 0xfe, 0xfe, 0xf9, 0xff, 0xfc, 0xfa, 0xf9, 0xfb, 0x00,
  0x02, 0xff, 0xff, 0x03, 0x02, 0x01, 0x02, 0xfd, 0xfc, 0xfa, 0x02, 0xfb,
  0xfd, 0xfa, 0x03, 0xfd, 0xfe, 0x01, 0x01, 0xfe, 0xfe, 0x03, 0x04, 0xff,
  0x01, 0x06, 0xfc, 0x00, 0x07, 0x05, 0x03, 0x05, 0x00, 0x01, 0x01, 0xfd,
  0x06, 0x03, 0x05, 0xfe, 0x01, 0xfb, 0x06, 0x06, 0xfb, 0xf9, 0xf9, 0x00,
  0xfc, 0x06, 0xf9, 0x06, 0x01, 0xff, 0xfe, 0xfa, 0xfe, 0xfc, 0x04, 0xfd,
  0x02, 0xfc, 0x07, 0xfb, 0xfc, 0xfd, 0x07, 0xff, 0x06, 0xfa, 0x04, 0x00,
  0xfe, 0xfa, 0xfa, 0x05, 0xfc, 0x07, 0xfb, 0x01, 0x05, 0xfb, 0x04, 0xfb,
  0xfd, 0xfe, 0xfe, 0xff, 0x04, 0xfd, 0xfb, 0x04, 0x07, 0xfc, 0xfb, 0x04,
  0xff, 0xf9, 0x01, 0x01, 0x06, 0xf9, 0x03, 0xfc, 0xfe, 0x02, 0xff, 0xfb,
  0xfa, 0xfd, 0x00, 0x07, 0xfe, 0xfd, 0x03, 0x02, 0xfe, 0xfc, 0xff, 0xfd,
  0xfc, 0x04, 0x06, 0x06, 0x05, 0xfa, 0xfa, 0x06, 0x04, 0x01, 0xfe, 0xfb,
  0xfc, 0xfe, 0xfd, 0x07, 0x06, 0x03, 0x01, 0xfc, 0xff, 0x00, 0xfd, 0xfc,
  0x04, 0xfe, 0xfc, 0x06, 0x03, 0x03, 0x06, 0x03, 0x04, 0xf9, 0xf9, 0x06,
  0xfa, 0xfc, 0x03, 0xf9, 0x04, 0x05, 0xfa, 0x02, 0xfc, 0xfd, 0xfe, 0xfb,
  0x05, 0xfc, 0xfb, 0xfc, 0x02, 0x07, 0x03, 0xfc, 0x03, 0xfe, 0x06, 0xfd,
  0x01, 0x01, 0xff, 0x06, 0xfe, 0xfe, 0xfb, 0xf9, 0xfb, 0xfa, 0xfb, 0xfc,
  0xfc, 0xfb, 0x02, 0xfd, 0xfb, 0xff, 0x03, 0xfd, 0x00, 0xfc, 0xfb, 0xf9,
  0xfb, 0xfc, 0x00, 0x02, 0x07, 0xff, 0x06, 0x03, 0x00, 0x02, 0xff, 0xff,
  0x06, 0x05, 0x02, 0x05, 0xfc, 0x07, 0xfb, 0xfc, 0x00, 0xfd, 0x03, 0x06,
  0x05, 0x05, 0x07, 0x05, 0x06, 0xfc, 0xfb, 0xf9, 0x05, 0x06, 0xfc, 0xfc,
  0x04, 0xff, 0x02, 0x06, 0xfe, 0x07, 0xfd, 0x03, 0xf9, 0x06, 0xfd, 0xfa,
  0xfc, 0xfc, 0x00, 0x00, 0x00, 0x01, 0x06, 0xfd, 0xfc, 0xfd, 0xfb, 0x05,
  0xff, 0xf9, 0x01, 0x04, 0x05, 0x05, 0xfd, 0x07, 0xfb, 0x06, 0x01, 0x00,
  0x03, 0x01, 0xf9, 0x02, 0x02, 0x03, 0x01, 0xf9, 0x05, 0xfa, 0x01, 0xfe,
  0x03, 0xff, 0x06, 0x04, 0xfd, 0x01, 0x04, 0x00, 0xf9, 0x03, 0xfe, 0x03,
  0x01, 0xfc, 0xf9, 0x00, 0x06, 0xfc, 0xfc, 0xfc, 0x02, 0xff, 0x01, 0xfe,
  0xfe, 0x05, 0xfd, 0xfe, 0xfa, 0xfa, 0x04, 0xfa, 0x02, 0xfe, 0xff, 0x00,
  0xfb, 0x05, 0xf9, 0x03, 0x02, 0xfb, 0x03, 0x03, 0x04, 0x05, 0x03, 0x03,
  0x06, 0x04, 0xfd, 0xfe, 0xfa, 0xfc, 0xf9, 0xfc, 0x06, 0x04, 0xff, 0xfe,
  0x00, 0xfa, 0xfc, 0x01, 0xfe, 0xf9, 0xfe, 0x06, 0xf9, 0x05, 0xfe, 0x00,
  0x07, 0xfb, 0xff, 0x03, 0xfa, 0xff, 0xfd, 0xff, 0xfe, 0x06, 0xfb, 0xfa,
  0x07, 0x00, 0xfc, 0xfe, 0x02, 0x02, 0xfa, 0xfd, 0xfa, 0xf9, 0xff, 0xff,
  0xfa, 0xfc, 0xfc, 0x00, 0xfb, 0x02, 0x07, 0x04, 0x0f, 0xf4, 0xf9, 0xfb,
  0xfd, 0xfd, 0x03, 0x1d, 0x01, 0xff, 0xfe, 0xf5, 0xfe, 0xfe, 0xfd, 0xff,
  0xff, 0xf6, 0xf6, 0x01, 0x06, 0x06, 0xdc, 0xf5, 0xfd, 0xff, 0xfa, 0xf9,
  0x01, 0xfd, 0x12, 0x0d, 0x24, 0x19, 0xfa, 0x00, 0x0b, 0x07, 0x0c, 0x05,
  0xfb, 0x09, 0x04, 0x0b, 0x0c, 0x05, 0x0a, 0xfe, 0xf0, 0xef, 0x06, 0xfc,
  0x03, 0x03, 0x02, 0xfc, 0xfd, 0xfa, 0xfd, 0x09, 0x0a, 0x06, 0x0b, 0xfe,
  0xf9, 0xf2, 0x1c, 0xff, 0x0b, 0xfa, 0x0b, 0x4a, 0xf0, 0x02, 0xf5, 0xfc,
  0xfe, 0x02, 0xfb, 0xfd, 0xfa, 0xfa, 0xfd, 0xfd, 0xfe, 0xff, 0xfb, 0xee,
  0xf6, 0xfd, 0x20, 0x04, 0xff, 0xfb, 0xf7, 0x03, 0x08, 0x08, 0xff, 0x13,
  0x05, 0x05, 0xff, 0x01, 0x04, 0xff, 0x03, 0x07, 0x03, 0x03, 0xff, 0x06,
  0x04, 0x04, 0x08, 0xfc, 0x0a, 0x09, 0x0a, 0xff, 0x00, 0xfa, 0x08, 0xf4,
  0x05, 0xfe, 0x08, 0xfd, 0x05, 0xbb, 0xd3, 0x06, 0x04, 0x00, 0x1e, 0xff,
  0xf6, 0xfe, 0xe6, 0xf4, 0x07, 0xf9, 0xff, 0xf8, 0xe8, 0x00, 0xf4, 0x05,
  0xfd, 0x04, 0x07, 0xd9, 0xe4, 0xf4, 0xef, 0xf2, 0x00, 0xfa, 0xf9, 0xfe,
  0x13, 0x0a, 0xf5, 0x15, 0xff, 0x02, 0x04, 0xf5, 0x09, 0x02, 0x01, 0xfc,
  0xf6, 0x03, 0x08, 0xfd, 0xfd, 0x00, 0xf7, 0x05, 0xf9, 0x04, 0xf9, 0xfb,
  0x01, 0x04, 0x00, 0xf6, 0xfa, 0x05, 0x0a, 0xfe, 0xf1, 0xfc, 0x0c, 0xfd,
  0x04, 0x03, 0xf3, 0xf4, 0xfa, 0x01, 0x0c, 0x06, 0x07, 0xf8, 0xf8, 0x00,
  0x0a, 0x02, 0x05, 0xfc, 0x02, 0xfa, 0xf1, 0xff, 0xf7, 0x05, 0x02, 0xfe,
  0x05, 0xf9, 0x00, 0x08, 0xea, 0xfc, 0x04, 0x0a, 0xf8, 0x0e, 0xf6, 0x0f,
  0xfe, 0xef, 0x01, 0x08, 0xff, 0xfd, 0x02, 0xfe, 0xfb, 0xff, 0x0c, 0x0a,
  0xfa, 0x0b, 0xfa, 0x07, 0xf8, 0xee, 0xfa, 0x0d, 0x02, 0x09, 0xf8, 0xef,
  0xff, 0x09, 0x02, 0x09, 0x04, 0x04, 0x02, 0xce, 0x07, 0x0a, 0x05, 0x00,
  0xfd, 0x06, 0x10, 0xfc, 0x07, 0x10, 0x02, 0xfc, 0x03, 0x07, 0x1e, 0xfd,
  0x05, 0x08, 0x09, 0x10, 0x01, 0x09, 0xf5, 0xff, 0xea, 0xf0, 0x06, 0x00,
  0xea, 0x09, 0xfb, 0x04, 0x08, 0xf8, 0x06, 0x07, 0xfe, 0x02, 0xfc, 0x03,
  0xeb, 0xe5, 0x09, 0x07, 0x12, 0x0f, 0x0a, 0x07, 0xf6, 0xf0, 0xe8, 0x05,
  0xf2, 0x0a, 0xfe, 0x00, 0x04, 0x0d, 0xee, 0xfd, 0x07, 0xfe, 0xe6, 0xc6,
  0x0d, 0x01, 0x0d, 0x03, 0x03, 0xff, 0x12, 0x03, 0x0d, 0x04, 0x0e, 0x05,
  0x07, 0xfd, 0x03, 0xfd, 0x02, 0x02, 0x0e, 0xf0, 0xff, 0x07, 0xfd, 0x0a,
  0xf9, 0xfe, 0x07, 0xe2, 0x05, 0xeb, 0x01, 0xf8, 0xff, 0x02, 0x03, 0xf7,
  0x01, 0x06, 0x07, 0x03, 0xfe, 0x06, 0x08, 0x09, 0x07, 0x0b, 0x03, 0x06,
  0x06, 0xf6, 0x0a, 0xe8, 0xfc, 0xff, 0xff, 0x03, 0xf3, 0x1f, 0x08, 0xfc,
  0xfb, 0x01, 0xe8, 0x02, 0x07, 0x07, 0xf7, 0x05, 0x06, 0xfe, 0x05, 0x09,
  0x0c, 0xf9, 0x15, 0xfb, 0xf9, 0x00, 0xff, 0x13, 0x13, 0x00, 0x06, 0x0f,
  0x06, 0x00, 0x09, 0x05, 0xd6, 0xfe, 0xfb, 0xef, 0x01, 0x0b, 0xf4, 0x02,
  0xfb, 0x02, 0x02, 0x06, 0x01, 0x0b, 0xf7, 0x06, 0xf9, 0xf3, 0xf8, 0x02,
  0xfb, 0x03, 0xf8, 0x01, 0xff, 0x04, 0xf5, 0xf9, 0xf7, 0xfe, 0xfd, 0xfe,
  0x0f, 0x0e, 0x13, 0x09, 0x06, 0x00, 0xfb, 0x1c, 0x08, 0x0c, 0x0d, 0x00,
  0xfb, 0x01, 0x09, 0x00, 0x0f, 0x09, 0x0a, 0x09, 0xf9, 0x02, 0x0e, 0x02,
  0x0c, 0x02, 0x06, 0x02, 0xff, 0x03, 0x05, 0xf8, 0xf0, 0x00, 0x0a, 0xf5,
  0xf7, 0x03, 0xff, 0x07, 0x01, 0x0c, 0xf6, 0x00, 0xf9, 0x02, 0x02, 0x06,
  0xfc, 0xfa, 0x06, 0xd7, 0xfa, 0xcc, 0xfc, 0x02, 0xff, 0x04, 0x01, 0x01,
  0x03, 0x07, 0x07, 0x1a, 0xfa, 0x05, 0xf9, 0x05, 0x00, 0x00, 0x06, 0xfd,
  0xfa, 0x04, 0x06, 0xfe, 0x05, 0xfa, 0x07, 0x04, 0xfa, 0xfe, 0x06, 0x03,
  0xff, 0xfe, 0xfc, 0xfc, 0xf9, 0xfc, 0x02, 0x05, 0x01, 0xff, 0x03, 0x00,
  0xfe, 0x02, 0xfa, 0xff, 0xff, 0x07, 0xfa, 0x05, 0x00, 0x06, 0x06, 0xfd,
  0x03, 0x05, 0x04, 0x02, 0xfe, 0xff, 0xfe, 0xfd, 0xfd, 0xfd, 0x01, 0x00,
  0xfb, 0x06, 0xfa, 0xfb, 0xfa, 0xff, 0x07, 0x03, 0x05, 0x06, 0xfc, 0xf9,
  0xfa, 0xfb, 0x05, 0xfd, 0xfa, 0xfb, 0x07, 0x03, 0xfb, 0x04, 0x04, 0x06,
  0x01, 0xff, 0xfb, 0xfb, 0xfe, 0xfc, 0x06, 0x00, 0xfb, 0x01, 0x03, 0x01,
  0xfd, 0x05, 0x04, 0x01, 0x00, 0x01, 0x01, 0xfb, 0x00, 0xff, 0xfe, 0x03,
  0xfd, 0xf9, 0xfc, 0xfc, 0xfb, 0xfb, 0x06, 0x01, 0x07, 0xfa, 0x06, 0xfa,
  0x05, 0x01, 0x02, 0xfb, 0xfb, 0xfb, 0x03, 0x02, 0x04, 0xfd, 0xfe, 0xff,
  0x06, 0x05, 0x03, 0xfd, 0x00, 0xfd, 0x04, 0x07, 0x02, 0x05, 0xfa, 0x06,
  0x04, 0xf9, 0xfb, 0xfc, 0xf9, 0x06, 0xfb, 0xf9, 0xfa, 0xfe, 0xfb, 0xf9,
  0x07, 0x07, 0x07, 0xf9, 0x00, 0x02, 0x07, 0x05, 0x03, 0xfe, 0x00, 0x02,
  0xfe, 0x04, 0x01, 0xff, 0xfe, 0x07, 0xfb, 0x00, 0x00, 0xff, 0xfe, 0xfe,
  0xfc, 0x03, 0x00, 0xfe, 0x02, 0xff, 0x06, 0xf9, 0xfd, 0xfc, 0xfb, 0x07,
  0xfe, 0xfb, 0xfa, 0x02, 0xfe, 0x00, 0xf9, 0xfd, 0x01, 0xfe, 0xfb, 0x03,
  0x04, 0x01, 0x03, 0xff, 0xfe, 0x01, 0x02, 0xfa, 0xfa, 0x06, 0x04, 0xfe,
  0xf9, 0x01, 0x05, 0x06, 0xf9, 0x02, 0x00, 0xff, 0x07, 0x00, 0x07, 0xfb,
  0x06, 0xff, 0x00, 0x02, 0xfa, 0xfd, 0xfc, 0x07, 0xfc, 0x00, 0xff, 0xfa,
  0x07, 0x05, 0xfc, 0xfa, 0x04, 0x00, 0x05, 0xfe, 0xfa, 0xfd, 0xff, 0xfd,
  0xfd, 0x05, 0xfa, 0xff, 0xfe, 0x06, 0xfc, 0xfb, 0xf9, 0xff, 0x05, 0xfe,
  0xf9, 0x02, 0xf9, 0x07, 0x05, 0xff, 0x01, 0x01, 0xfc, 0x06, 0xff, 0x03,
  0xfc, 0x00, 0x01, 0x00, 0x01, 0x00, 0xff, 0xfc, 0xfa, 0x04, 0x04, 0xfc,
  0xfd, 0xf8, 0x03, 0xfe, 0xfa, 0x06, 0x05, 0xfc, 0xfd, 0x05, 0x04, 0xfd,
  0xfd, 0xf8, 0xfa, 0xff, 0x07, 0xfa, 0xfd, 0x04, 0x00, 0xfc, 0x02, 0x03,
  0xfe, 0xfd, 0x01, 0xfc, 0xfd, 0x01, 0xfa, 0xff, 0x01, 0xfd, 0xfd, 0xfc,
  0x03, 0xff, 0xfe, 0xff, 0xfa, 0xfa, 0x04, 0x06, 0xf9, 0xfb, 0xfd, 0x02,
  0xf9, 0xfa, 0xf8, 0x02, 0xfa, 0x04, 0x04, 0xfd, 0x03, 0xfb, 0xfe, 0xfa,
  0xfd, 0x04, 0xfa, 0xf9, 0x06, 0x00, 0xfa, 0x02, 0x05, 0xfc, 0x05, 0x04,
  0xfd, 0x01, 0xfb, 0xfd, 0xff, 0x01, 0xf9, 0x05, 0xfe, 0xff, 0x05, 0x02,
  0xff, 0x04, 0x04, 0xff, 0xfb, 0x05, 0x01, 0xfc, 0xfa, 0xfe, 0xfa, 0xff,
  0x03, 0x06, 0x05, 0xf9, 0x02, 0x00, 0x01, 0x02, 0xf9, 0x06, 0x06, 0xfc,
  0xfa, 0xfd, 0x01, 0x04, 0xfe, 0xfb, 0x03, 0x00, 0x04, 0xfd, 0x05, 0xf9,
  0x06, 0x06, 0xff, 0xff, 0x05, 0x00, 0x00, 0xff, 0x06, 0xf8, 0x03, 0xfd,
  0x02, 0xfd, 0x04, 0x02, 0x06, 0xfd, 0x03, 0x04, 0x02, 0xfa, 0xf8, 0x01,
  0xfe, 0xfb, 0xfe, 0xff, 0xf9, 0x03, 0xfa, 0xf8, 0x04, 0x00, 0xfb, 0x00,
  0xff, 0xfa, 0x00, 0xf9, 0x06, 0x05, 0x03, 0xfe, 0xff, 0xfb, 0x00, 0x04,
  0x02, 0x00, 0x00, 0x00, 0x02, 0x05, 0x04, 0x05, 0xf9, 0xff, 0x02, 0x01,
  0xff, 0x01, 0x05, 0xfb, 0x06, 0x06, 0xf9, 0x04, 0x07, 0xfa, 0x05, 0x03,
  0xfc, 0xfd, 0x01, 0x03, 0xfd, 0xfc, 0xfe, 0x05, 0x07, 0x00, 0xfc, 0xf9,
  0x00, 0x02, 0xfc, 0xfc, 0x06, 0x06, 0xf9, 0x06, 0x05, 0xfc, 0x04, 0xf8,
  0x04, 0xff, 0xf9, 0xfc, 0x02, 0x01, 0xfc, 0xfc, 0xfb, 0xfe, 0x03, 0xfc,
  0xeb, 0xf6, 0xf5, 0x09, 0x05, 0x06, 0x02, 0x2c, 0xf7, 0x02, 0xfb, 0x05,
  0x00, 0xff, 0xe8, 0x08, 0xf7, 0xf6, 0xf7, 0xfa, 0xf9, 0x00, 0xf3, 0x0f,
  0x01, 0x02, 0xef, 0xec, 0x02, 0xff, 0x1b, 0x0c, 0xfa, 0x07, 0x09, 0x09,
  0xfd, 0x0b, 0x02, 0x02, 0xff, 0x0c, 0x08, 0x08, 0x02, 0x07, 0x05, 0x0b,
  0x0c, 0x02, 0x00, 0x0a, 0xff, 0xfe, 0x01, 0xfd, 0x03, 0x0f, 0x0d, 0x00,
  0x06, 0xfa, 0x08, 0xfb, 0xf5, 0xf1, 0xee, 0xfe, 0xf0, 0x05, 0xee, 0x16,
  0xf2, 0x0b, 0xf3, 0x01, 0xfd, 0x00, 0xf9, 0xfc, 0xe3, 0xf8, 0xec, 0xfe,
  0xfc, 0x05, 0xfc, 0x03, 0x01, 0xfe, 0xbf, 0xfb, 0x03, 0x03, 0xfe, 0x04,
  0x0e, 0xfe, 0x03, 0x04, 0x03, 0x0b, 0x02, 0x07, 0x04, 0xfd, 0x01, 0x02,
  0x00, 0x06, 0x01, 0x0a, 0x05, 0x05, 0xf5, 0x01, 0x03, 0xfd, 0xfc, 0xfa,
  0x0b, 0x0e, 0xf9, 0xf8, 0x02, 0x0e, 0x0b, 0xfb, 0x0d, 0x50, 0x5d, 0xff,
  0xff, 0x05, 0xfb, 0x1c, 0x0a, 0x08, 0x33, 0x0b, 0xfb, 0x03, 0xfb, 0x0d,
  0x19, 0xfa, 0xff, 0x03, 0xfe, 0x0d, 0xfe, 0x52, 0x0b, 0x02, 0x28, 0xfd,
  0x07, 0x0f, 0x0f, 0xf9, 0xff, 0x06, 0x04, 0xfd, 0xff, 0x02, 0x00, 0x02,
  0x04, 0xf8, 0x02, 0xff, 0xfe, 0x02, 0x00, 0x02, 0x00, 0x05, 0x07, 0x09,
  0x09, 0x04, 0x0a, 0x0d, 0x08, 0xfa, 0xfd, 0x06, 0xfd, 0x16, 0x09, 0xfe,
  0x09, 0xdc, 0xe4, 0x03, 0x00, 0x06, 0x00, 0xd3, 0xed, 0xfa, 0xd8, 0xe9,
  0xf9, 0x01, 0x03, 0x01, 0xee, 0xe3, 0xe0, 0x03, 0xfb, 0x01, 0xea, 0xe9,
  0xee, 0x00, 0xe1, 0xe3, 0xfc, 0xfa, 0x01, 0x10, 0x01, 0x06, 0xeb, 0x16,
  0xff, 0x04, 0x09, 0xe5, 0xf7, 0xff, 0x05, 0xf2, 0x08, 0x06, 0x04, 0x11,
  0xfc, 0x00, 0xf0, 0x1d, 0x05, 0x09, 0x0a, 0xfb, 0xff, 0x16, 0x0a, 0xf3,
  0xfe, 0xfd, 0x03, 0xf6, 0x13, 0xdf, 0xeb, 0xfe, 0xfd, 0x04, 0x04, 0x03,
  0xf8, 0xfb, 0xf6, 0xf2, 0xfa, 0xfd, 0x07, 0xfe, 0xf0, 0xe5, 0xe9, 0x01,
  0xfb, 0xfd, 0x10, 0xe4, 0x05, 0xfe, 0xf1, 0xff, 0x05, 0xfd, 0x01, 0x05,
  0x1b, 0x16, 0xff, 0x01, 0x0a, 0xfc, 0x07, 0x07, 0xfe, 0x03, 0x0f, 0x0f,
  0x18, 0xfa, 0xff, 0xfd, 0xeb, 0xe3, 0x03, 0xfe, 0x0b, 0x03, 0x05, 0x0f,
  0xf2, 0xf8, 0xf3, 0x02, 0x09, 0x02, 0x05, 0x02, 0xe7, 0xd3, 0xf1, 0x04,
  0x05, 0xfd, 0xa6, 0x27, 0xe9, 0x02, 0xe5, 0xf9, 0xfd, 0x04, 0xf7, 0xf7,
  0xe8, 0xe9, 0xfb, 0xf4, 0xf9, 0x04, 0x01, 0xe0, 0xfc, 0x01, 0x17, 0xec,
  0xff, 0xfc, 0xf5, 0x05, 0x06, 0x06, 0x0f, 0xf5, 0x08, 0xf5, 0x0e, 0xfb,
  0x00, 0xfc, 0x01, 0x05, 0x08, 0x05, 0x02, 0x01, 0x06, 0x0c, 0x0a, 0xf7,
  0x07, 0x0f, 0x0c, 0x11, 0x0c, 0xf5, 0x02, 0xec, 0x0f, 0xf7, 0x04, 0x04,
  0xfa, 0xae, 0xd4, 0xfb, 0xfb, 0xfe, 0x02, 0xf4, 0xe7, 0x01, 0xd7, 0xf0,
  0xfd, 0xfb, 0x00, 0xfd, 0xe4, 0xf7, 0xfc, 0xfd, 0x06, 0xfe, 0x05, 0xc6,
  0xe8, 0xf7, 0xfa, 0xf8, 0x05, 0xf8, 0xf6, 0x02, 0x03, 0x04, 0xfd, 0x07,
  0xfa, 0x01, 0x05, 0xf9, 0xfa, 0x07, 0xf8, 0xf4, 0xf5, 0xfb, 0x08, 0x03,
  0x01, 0x02, 0x06, 0x07, 0xfd, 0xf7, 0xff, 0x06, 0xfb, 0xf9, 0x04, 0x01,
  0xfb, 0xf3, 0x0c, 0xf8, 0xee, 0xe5, 0xf4, 0xff, 0xfa, 0x01, 0xe1, 0xf3,
  0xf7, 0xf8, 0x01, 0xf1, 0xfe, 0xfe, 0xfb, 0xfb, 0xf5, 0xf5, 0xfa, 0x00,
  0xfc, 0x01, 0xf7, 0xf5, 0x00, 0x00, 0xf6, 0xf6, 0x00, 0xff, 0x02, 0x09,
  0xeb, 0xf9, 0xec, 0x03, 0xfa, 0x15, 0xf5, 0x00, 0xfd, 0xf0, 0x06, 0x07,
  0xfe, 0xfe, 0x06, 0x0e, 0xf8, 0x00, 0x0a, 0xf8, 0x04, 0xee, 0x05, 0x11,
  0xf5, 0xfc, 0x17, 0x06, 0xfd, 0x01, 0xff, 0xf0, 0x04, 0x01, 0xfb, 0x01,
  0xfd, 0x06, 0x03, 0x01, 0xfc, 0xff, 0x05, 0xfa, 0xf9, 0x04, 0x00, 0xfb,
  0x00, 0xfa, 0x04, 0x00, 0x02, 0x01, 0x02, 0x00, 0xfa, 0x06, 0x07, 0xff,
  0x03, 0x04, 0xfb, 0x00, 0x00, 0x04, 0xff, 0x07, 0xfa, 0x01, 0xfc, 0xfc,
  0x05, 0x01, 0xfb, 0x02, 0xff, 0xfa, 0xfc, 0xf9, 0xfc, 0x02, 0x01, 0x01,
  0xff, 0x07, 0xf9, 0xf9, 0xfa, 0xfa, 0xfb, 0xfa, 0xfd, 0xfc, 0x01, 0x06,
  0xfa, 0xfb, 0x06, 0xfd, 0xf9, 0xf9, 0xfb, 0xfe, 0xfb, 0x00, 0x03, 0x07,
  0x01, 0x07, 0x00, 0xff, 0xfb, 0xfc, 0x03, 0xfa, 0x02, 0xf9, 0x05, 0x00,
  0xfa, 0x07, 0x04, 0xfd, 0x01, 0xfa, 0xfe, 0xfb, 0xfc, 0x00, 0xfe, 0x06,
  0xfb, 0xfe, 0x00, 0xfc, 0xfd, 0xfe, 0x06, 0x07, 0x04, 0x05, 0x04, 0x06,
  0xfb, 0xfb, 0xfe, 0xfa, 0xfe, 0x04, 0x05, 0xfb, 0xfd, 0x06, 0xfd, 0xfa,
  0xff, 0x04, 0x07, 0x03, 0xfc, 0xfc, 0xfd, 0xfc, 0xff, 0xfa, 0xfc, 0xfc,
  0xff, 0xfd, 0x02, 0xfd, 0x01, 0xfd, 0x05, 0xfc, 0xfe, 0xff, 0xfd, 0x06,
  0xfe, 0xf9, 0x02, 0xfb, 0x06, 0x03, 0x04, 0xfc, 0x07, 0x03, 0xfd, 0x00,
  0xfe, 0xfe, 0xf9, 0x05, 0x03, 0xfb, 0x05, 0x02, 0xfe, 0x01, 0xfd, 0x05,
  0x03, 0xf9, 0xff, 0x05, 0xfa, 0x05, 0x06, 0x00, 0x06, 0xff, 0xfe, 0x03,
  0xfb, 0x03, 0xff, 0x00, 0xfc, 0x00, 0x01, 0x03, 0x02, 0x01, 0xfa, 0x03,
  0x06, 0x05, 0xfc, 0x04, 0x01, 0xf9, 0x02, 0x00, 0xff, 0x00, 0x01, 0xfa,
  0x03, 0x01, 0x06, 0x06, 0xfe, 0xfe, 0xf9, 0xff, 0x02, 0xfb, 0xfc, 0xf9,
  0xfd, 0x06, 0xfc, 0xf9, 0x04, 0x05, 0xf9, 0x06, 0x06, 0x02, 0x03, 0x07,
  0x03, 0xfa, 0xf9, 0x03, 0xf9, 0xfe, 0xfc, 0x02, 0xfa, 0x02, 0xff, 0xff,
  0xfa, 0xfa, 0x03, 0x05, 0x01, 0x04, 0xfc, 0x05, 0x04, 0x06, 0x06, 0x07,
  0xe1, 0x04, 0x04, 0x06, 0xff, 0xfb, 0x03, 0xfe, 0x00, 0xfe, 0x0a, 0xff,
  0x07, 0x02, 0xf7, 0x02, 0x05, 0xfb, 0xfb, 0x03, 0xfd, 0x04, 0x1d, 0x13,
  0x05, 0x03, 0xf2, 0xeb, 0x05, 0xfd, 0x06, 0x00, 0xe8, 0xe2, 0xff, 0xfc,
  0xf8, 0xfe, 0x01, 0xfd, 0xfc, 0x02, 0xfc, 0xff, 0xec, 0x07, 0xfc, 0xfb,
  0xf6, 0xfd, 0x04, 0xfc, 0x01, 0xfe, 0x02, 0xfe, 0xfc, 0xff, 0xff, 0x03,
  0xff, 0x02, 0xfd, 0xff, 0x01, 0x05, 0xd3, 0x03, 0xf2, 0x03, 0xea, 0xc4,
  0xf4, 0x00, 0xfb, 0x00, 0x06, 0x06, 0x02, 0xfa, 0xf4, 0x00, 0xef, 0x0a,
  0xfa, 0x07, 0xfe, 0x17, 0xf9, 0x01, 0xb0, 0xfc, 0xf9, 0x02, 0xfc, 0x01,
  0x01, 0xff, 0xfe, 0xe2, 0xfe, 0xf5, 0xfc, 0xee, 0x05, 0xf8, 0xfa, 0xfa,
  0xfe, 0x01, 0x06, 0x02, 0x08, 0xfb, 0x01, 0x06, 0x07, 0x06, 0x02, 0x0c,
  0xfe, 0xf9, 0xff, 0xfa, 0x01, 0x00, 0x00, 0xfc, 0x07, 0x62, 0x50, 0x01,
  0xfc, 0x05, 0xd2, 0x0d, 0x13, 0x06, 0x2f, 0x17, 0xfc, 0x05, 0xfd, 0x11,
  0x26, 0xfd, 0x07, 0x07, 0xfb, 0x06, 0xff, 0x33, 0x15, 0x0a, 0x18, 0x06,
  0xfa, 0x04, 0x19, 0x0a, 0xf1, 0xf7, 0x09, 0xe9, 0x07, 0x09, 0x09, 0x05,
  0xf8, 0xfa, 0x0f, 0x0c, 0x07, 0x02, 0xff, 0x01, 0x01, 0xf9, 0xfa, 0x00,
  0x0a, 0x0b, 0x06, 0xff, 0xfd, 0x0c, 0x02, 0x09, 0x05, 0x06, 0xf9, 0xfb,
  0x11, 0xf3, 0xf6, 0x06, 0x05, 0x06, 0x05, 0xf0, 0xfd, 0x04, 0xed, 0xfa,
  0x06, 0xfb, 0x00, 0xfd, 0xfc, 0x01, 0xee, 0xff, 0x04, 0x02, 0xf1, 0x00,
  0x00, 0x02, 0xf1, 0xf5, 0x05, 0x04, 0xfa, 0x09, 0x19, 0x0c, 0xed, 0x00,
  0xfe, 0xfd, 0x0d, 0xe8, 0x06, 0x0a, 0xf5, 0xf6, 0x02, 0x0c, 0x01, 0x05,
  0x0a, 0x02, 0xf0, 0xfd, 0x02, 0xe6, 0xfc, 0xf0, 0x0d, 0x1a, 0x0e, 0xf9,
  0x05, 0xf6, 0x04, 0x0d, 0x04, 0x07, 0xf9, 0xfa, 0x00, 0xfe, 0x06, 0x03,
  0xfb, 0x03, 0x02, 0x01, 0xfd, 0xfc, 0x04, 0x06, 0xfe, 0x02, 0xfc, 0xfc,
  0xfd, 0xf9, 0x05, 0x07, 0xf9, 0xfc, 0xfb, 0x05, 0xff, 0x01, 0x06, 0xfb,
  0x02, 0x05, 0x04, 0xfa, 0x05, 0x02, 0x05, 0x03, 0x05, 0x03, 0x00, 0x05,
  0x03, 0x02, 0x01, 0x05, 0xfc, 0x03, 0xfa, 0x00, 0x01, 0xff, 0xfa, 0x00,
  0xfd, 0xfd, 0x05, 0x00, 0xfb, 0xf9, 0x04, 0x02, 0xfd, 0x04, 0x05, 0xfe,
  0x07, 0x04, 0xfc, 0x06, 0x02, 0xfc, 0x07, 0x06, 0xfb, 0xf9, 0xfa, 0xff,
  0xfe, 0xfb, 0x02, 0x07, 0x02, 0x01, 0x03, 0xfc, 0xf9, 0xfe, 0x05, 0xfa,
  0x03, 0x04, 0xfb, 0xfc, 0x05, 0xfe, 0xfe, 0x06, 0x05, 0xfd, 0xff, 0xf9,
  0x01, 0x07, 0x04, 0xfa, 0xfb, 0xfe, 0xfe, 0x03, 0xfd, 0x03, 0xfd, 0x07,
  0x02, 0xf9, 0xfc, 0xfd, 0xff, 0x00, 0xfe, 0x03, 0xf9, 0xfc, 0xfb, 0x04,
  0xfb, 0xfb, 0xfe, 0x06, 0xfe, 0x05, 0xfd, 0xfc, 0x00, 0xff, 0x06, 0xfe,
  0x07, 0x06, 0x03, 0xff, 0x03, 0xfb, 0xfc, 0x06, 0xfe, 0x07, 0x01, 0x06,
  0x00, 0xfc, 0x04, 0x07, 0xfb, 0xf9, 0x02, 0x07, 0xfc, 0xfa, 0x01, 0x02,
  0x02, 0x07, 0x05, 0x03, 0x00, 0x06, 0x05, 0xfe, 0xf9, 0xfa, 0x00, 0xfe,
  0x00, 0xff, 0x00, 0x02, 0xfc, 0x03, 0xfe, 0xfd, 0x03, 0xfb, 0xfb, 0x03,
  0x07, 0x04, 0x03, 0xfb, 0xfc, 0xff, 0x06, 0xfe, 0xff, 0x07, 0xfa, 0x05,
  0x01, 0xf9, 0x04, 0x05, 0xfc, 0xf9, 0x00, 0x05, 0x01, 0xfe, 0xfa, 0x02,
  0x02, 0x00, 0x04, 0xfd, 0xfe, 0xf9, 0x01, 0x05, 0x02, 0xfb, 0xfb, 0xfa,
  0x03, 0x02, 0xf9, 0xfd, 0x05, 0xff, 0x04, 0x00, 0xff, 0x00, 0x07, 0x01,
  0x02, 0x00, 0xfc, 0x07, 0x01, 0x04, 0xfb, 0xfc, 0xfb, 0x02, 0xfa, 0xff,
  0xfd, 0x03, 0x05, 0xfb, 0x05, 0xfe, 0xff, 0x05, 0xf0, 0x17, 0x0f, 0x06,
  0x06, 0x09, 0x04, 0xe3, 0x09, 0x0e, 0x06, 0x06, 0xfd, 0x0e, 0x05, 0x0d,
  0x12, 0x0f, 0x10, 0x0e, 0x06, 0x0e, 0x1d, 0x13, 0x07, 0x06, 0x04, 0xfe,
  0x01, 0x06, 0xf5, 0xfb, 0xd2, 0xe8, 0xff, 0x0b, 0xea, 0x0d, 0xf0, 0xfc,
  0xfc, 0xfc, 0xf3, 0xf7, 0xe4, 0x04, 0x07, 0xfe, 0xe7, 0xfb, 0xfc, 0x0b,
  0xfe, 0x0e, 0x01, 0xf8, 0xfa, 0x00, 0xe8, 0x03, 0xe7, 0x06, 0xf4, 0x0a,
  0x11, 0x17, 0xe2, 0x05, 0xfb, 0x0a, 0x11, 0xb8, 0x15, 0x01, 0x0f, 0x0c,
  0x04, 0x08, 0x13, 0x03, 0x0c, 0x0d, 0x05, 0x0c, 0x02, 0x07, 0x05, 0x14,
  0x07, 0x09, 0xe8, 0x04, 0x03, 0x0d, 0x05, 0x07, 0xfa, 0xfa, 0xfb, 0x0c,
  0xf5, 0xf8, 0x00, 0xe9, 0xfb, 0x15, 0xf8, 0xff, 0xf8, 0xfc, 0x03, 0xfb,
  0xf5, 0x01, 0x01, 0x08, 0xf8, 0x10, 0xf7, 0x04, 0xf7, 0xfd, 0xfc, 0xf5,
  0xfe, 0x02, 0x03, 0x06, 0x0b, 0x60, 0x3f, 0x0b, 0x06, 0x03, 0x06, 0x10,
  0x19, 0x08, 0x31, 0x1c, 0x06, 0x09, 0x0a, 0x0c, 0x26, 0x0d, 0x21, 0x0c,
  0xf9, 0x04, 0x04, 0x55, 0x24, 0x05, 0x26, 0x0e, 0xfe, 0x07, 0x18, 0x12,
  0xe0, 0xf4, 0x05, 0xf5, 0x0b, 0x0b, 0xf7, 0x00, 0xf6, 0xff, 0x04, 0x07,
  0x18, 0x00, 0xf8, 0x00, 0xf2, 0xf4, 0x09, 0x02, 0x09, 0x08, 0x00, 0xf9,
  0xf8, 0x09, 0xfe, 0x08, 0x0b, 0xf7, 0xf6, 0x09, 0x13, 0x0e, 0x0a, 0x06,
  0x03, 0x0d, 0x01, 0x0a, 0x13, 0x0c, 0xf8, 0x0c, 0xff, 0x06, 0x09, 0x09,
  0x10, 0x07, 0x02, 0x09, 0xfb, 0x0c, 0x0b, 0x0c, 0x12, 0x0c, 0x07, 0x06,
  0x05, 0x0c, 0x0e, 0x02, 0x1a, 0x0b, 0x09, 0xfb, 0x0f, 0xf9, 0x09, 0xfa,
  0x02, 0x18, 0x03, 0xfe, 0x0d, 0xff, 0x04, 0x11, 0x02, 0x03, 0xf9, 0x0c,
  0x01, 0xff, 0x0d, 0xfb, 0x0a, 0x18, 0xf8, 0xfb, 0x00, 0x07, 0x10, 0x38,
  0x4a, 0xfd, 0xff, 0xff, 0x04, 0x00, 0x00, 0x00, 0x80, 0x00, 0x00, 0x00,
  0x0c, 0x00, 0x00, 0x00, 0x22, 0x00, 0x00, 0x00, 0xf8, 0xff, 0xff, 0xff,
  0xd3, 0xff, 0xff, 0xff, 0x8b, 0x00, 0x00, 0x00, 0xe5, 0xff, 0xff, 0xff,
  0xf4, 0xff, 0xff, 0xff, 0xfa, 0xff, 0xff, 0xff, 0x00, 0x00, 0x00, 0x00,
  0xbd, 0xff, 0xff, 0xff, 0xdf, 0xff, 0xff, 0xff, 0x50, 0x00, 0x00, 0x00,
  0xf4, 0xff, 0xff, 0xff, 0x00, 0x00, 0x00, 0x00, 0xc6, 0xff, 0xff, 0xff,
  0x24, 0x00, 0x00, 0x00, 0x3e, 0x00, 0x00, 0x00, 0x0a, 0x00, 0x00, 0x00,
  0x11, 0x00, 0x00, 0x00, 0xf8, 0xff, 0xff, 0xff, 0x00, 0x00, 0x00, 0x00,
  0x00, 0x00, 0x00, 0x00, 0xf4, 0xff, 0xff, 0xff, 0x36, 0x00, 0x00, 0x00,
  0x00, 0x00, 0x00, 0x00, 0xed, 0xff, 0xff, 0xff, 0x45, 0x00, 0x00, 0x00,
  0xd7, 0xff, 0xff, 0xff, 0x00, 0x00, 0x00, 0x00, 0x36, 0x00, 0x00, 0x00,
  0x00, 0x00, 0x00, 0x00, 0xaa, 0x00, 0x00, 0x00, 0xd6, 0xfd, 0xff, 0xff,
  0x04, 0x00, 0x00, 0x00, 0x40, 0x01, 0x00, 0x00, 0x6a, 0xf1, 0x03, 0x02,
  0x26, 0xd4, 0xfa, 0xf5, 0x13, 0xc7, 0xc9, 0xfb, 0xfe, 0xfa, 0xf7, 0xe8,
  0xdb, 0x1b, 0x1b, 0x14, 0x02, 0xfa, 0x07, 0xf2, 0x16, 0xf1, 0xee, 0xb0,
  0xf7, 0xd5, 0x01, 0x26, 0xfe, 0xc8, 0x14, 0xd2, 0x2e, 0x01, 0xe7, 0xfa,
  0xe5, 0xbd, 0x19, 0x1f, 0xf9, 0xe6, 0xfb, 0x05, 0xdf, 0x92, 0xee, 0x11,
  0x05, 0x10, 0x0d, 0x12, 0x0c, 0xf5, 0xd5, 0xda, 0xfd, 0xf9, 0xef, 0x2d,
  0x17, 0xe4, 0xf8, 0x05, 0x1b, 0x1b, 0xf7, 0x1b, 0xec, 0x2d, 0x17, 0xde,
  0x18, 0x16, 0xfa, 0xad, 0xe2, 0x0c, 0x05, 0xf9, 0xee, 0xff, 0xfe, 0xf9,
  0xfc, 0x16, 0xdb, 0xdd, 0xff, 0xe1, 0xf9, 0xe5, 0x0b, 0x29, 0xf0, 0x38,
  0x1d, 0xec, 0x04, 0xf7, 0x11, 0xd4, 0x20, 0x02, 0xda, 0x13, 0xe0, 0x21,
  0xf4, 0xd7, 0xe9, 0xeb, 0x00, 0x19, 0xcd, 0xc3, 0x00, 0xfe, 0x04, 0xea,
  0x18, 0x17, 0xe6, 0xd1, 0xec, 0x33, 0x03, 0xba, 0xfb, 0x16, 0xec, 0xf5,
  0xf4, 0xe7, 0xdc, 0x15, 0x01, 0x11, 0xee, 0x16, 0x1e, 0x0a, 0xc4, 0x1a,
  0x16, 0x10, 0x0e, 0xf8, 0x0d, 0x08, 0x03, 0x19, 0xfc, 0xf6, 0x14, 0xd1,
  0xbf, 0xd0, 0x14, 0xeb, 0x03, 0xdb, 0xea, 0xe6, 0x0d, 0x16, 0xd0, 0xf9,
  0x1a, 0x01, 0xc4, 0xd2, 0x24, 0xf4, 0x1f, 0x03, 0x1a, 0x00, 0xe4, 0x1b,
  0xf2, 0xf0, 0xfe, 0xe7, 0xe9, 0x26, 0x1b, 0x2c, 0x01, 0xec, 0xe3, 0x0a,
  0x81, 0xf9, 0x1c, 0xf8, 0x05, 0x16, 0xcb, 0xda, 0x22, 0xf9, 0x37, 0x01,
  0xf9, 0x2a, 0x0c, 0x0b, 0xe7, 0xe4, 0x17, 0x10, 0xfc, 0xfd, 0xe4, 0x2c,
  0x01, 0xda, 0x0f, 0x9c, 0xfe, 0xd6, 0xfe, 0xe0, 0x2a, 0x1a, 0xf6, 0x07,
  0x08, 0xd7, 0xf1, 0xfc, 0xbc, 0xfa, 0x0f, 0xf5, 0x14, 0xd4, 0x10, 0xff,
  0xe5, 0xf5, 0xbb, 0xec, 0xe8, 0x0c, 0x1a, 0xc0, 0xf7, 0x09, 0xe5, 0x25,
  0x0e, 0x01, 0x12, 0xee, 0xee, 0x06, 0x0d, 0x16, 0x1a, 0x01, 0x0a, 0xf4,
  0xf4, 0x18, 0x1f, 0xfe, 0xeb, 0x17, 0x0e, 0x15, 0x09, 0xf4, 0xfc, 0x19,
  0x15, 0x09, 0xd1, 0x13, 0xf7, 0xe8, 0x1c, 0x08, 0xfb, 0xf1, 0x07, 0xfc,
  0xdf, 0xff, 0x03, 0xe7, 0x07, 0xbb, 0xe2, 0xed, 0x0b, 0xf5, 0xef, 0x2e,
  0x1a, 0x94, 0xe1, 0xea, 0x18, 0xe6, 0x00, 0x08, 0xeb, 0x00, 0x20, 0x1d,
  0xfb, 0x1c, 0xf3, 0x12, 0x22, 0xff, 0xff, 0xff, 0x04, 0x00, 0x00, 0x00,
  0x28, 0x00, 0x00, 0x00, 0x25, 0x00, 0x00, 0x00, 0x1f, 0x00, 0x00, 0x00,
  0xe2, 0xff, 0xff, 0xff, 0xc0, 0xff, 0xff, 0xff, 0x03, 0x00, 0x00, 0x00,
  0x28, 0x00, 0x00, 0x00, 0xb7, 0xff, 0xff, 0xff, 0x23, 0x00, 0x00, 0x00,
  0xe9, 0xff, 0xff, 0xff, 0x23, 0x00, 0x00, 0x00, 0x56, 0xff, 0xff, 0xff,
  0x04, 0x00, 0x00, 0x00, 0x08, 0x00, 0x00, 0x00, 0xff, 0xff, 0xff, 0xff,
  0x00, 0x01, 0x00, 0x00, 0x1c, 0xf2, 0xff, 0xff, 0x20, 0xf2, 0xff, 0xff,
  0x0f, 0x00, 0x00, 0x00, 0x4d, 0x4c, 0x49, 0x52, 0x20, 0x43, 0x6f, 0x6e,
  0x76, 0x65, 0x72, 0x74, 0x65, 0x64, 0x2e, 0x00, 0x01, 0x00, 0x00, 0x00,
  0x14, 0x00, 0x00, 0x00, 0x00, 0x00, 0x0e, 0x00, 0x18, 0x00, 0x14, 0x00,
  0x10, 0x00, 0x0c, 0x00, 0x08, 0x00, 0x04, 0x00, 0x0e, 0x00, 0x00, 0x00,
  0x14, 0x00, 0x00, 0x00, 0x1c, 0x00, 0x00, 0x00, 0x40, 0x02, 0x00, 0x00,
  0x44, 0x02, 0x00, 0x00, 0x48, 0x02, 0x00, 0x00, 0x04, 0x00, 0x00, 0x00,
  0x6d, 0x61, 0x69, 0x6e, 0x00, 0x00, 0x00, 0x00, 0x08, 0x00, 0x00, 0x00,
  0x08, 0x02, 0x00, 0x00, 0xa4, 0x01, 0x00, 0x00, 0x44, 0x01, 0x00, 0x00,
  0xf0, 0x00, 0x00, 0x00, 0xc8, 0x00, 0x00, 0x00, 0x78, 0x00, 0x00, 0x00,
  0x40, 0x00, 0x00, 0x00, 0x04, 0x00, 0x00, 0x00, 0x86, 0xfe, 0xff, 0xff,
  0x1c, 0x00, 0x00, 0x00, 0x00, 0x00, 0x00, 0x09, 0x1c, 0x00, 0x00, 0x00,
  0x20, 0x00, 0x00, 0x00, 0x06, 0x00, 0x00, 0x00, 0x00, 0x00, 0x06, 0x00,
  0x08, 0x00, 0x04, 0x00, 0x06, 0x00, 0x00, 0x00, 0x00, 0x00, 0x80, 0x3f,
  0x01, 0x00, 0x00, 0x00, 0x11, 0x00, 0x00, 0x00, 0x01, 0x00, 0x00, 0x00,
  0x10, 0x00, 0x00, 0x00, 0xbe, 0xfe, 0xff, 0xff, 0x14, 0x00, 0x00, 0x00,
  0x00, 0x00, 0x00, 0x08, 0x10, 0x00, 0x00, 0x00, 0x14, 0x00, 0x00, 0x00,
  0x05, 0x00, 0x00, 0x00, 0xe8, 0xf2, 0xff, 0xff, 0x01, 0x00, 0x00, 0x00,
  0x10, 0x00, 0x00, 0x00, 0x03, 0x00, 0x00, 0x00, 0x0f, 0x00, 0x00, 0x00,
  0x03, 0x00, 0x00, 0x00, 0x02, 0x00, 0x00, 0x00, 0xf2, 0xfe, 0xff, 0xff,
  0x1c, 0x00, 0x00, 0x00, 0x00, 0x00, 0x00, 0x08, 0x1c, 0x00, 0x00, 0x00,
  0x20, 0x00, 0x00, 0x00, 0x05, 0x00, 0x00, 0x00, 0x00, 0x00, 0x06, 0x00,
  0x08, 0x00, 0x07, 0x00, 0x06, 0x00, 0x00, 0x00, 0x00, 0x00, 0x00, 0x01,
  0x01, 0x00, 0x00, 0x00, 0x0f, 0x00, 0x00, 0x00, 0x03, 0x00, 0x00, 0x00,
  0x0e, 0x00, 0x00, 0x00, 0x05, 0x00, 0x00, 0x00, 0x04, 0x00, 0x00, 0x00,
  0x00, 0x00, 0x0a, 0x00, 0x10, 0x00, 0x0c, 0x00, 0x08, 0x00, 0x04, 0x00,
  0x0a, 0x00, 0x00, 0x00, 0x0c, 0x00, 0x00, 0x00, 0x10, 0x00, 0x00, 0x00,
  0x04, 0x00, 0x00, 0x00, 0x01, 0x00, 0x00, 0x00, 0x0e, 0x00, 0x00, 0x00,
  0x02, 0x00, 0x00, 0x00, 0x0d, 0x00, 0x00, 0x00, 0x01, 0x00, 0x00, 0x00,
  0x62, 0xff, 0xff, 0xff, 0x24, 0x00, 0x00, 0x00, 0x00, 0x00, 0x00, 0x05,
  0x34, 0x00, 0x00, 0x00, 0x38, 0x00, 0x00, 0x00, 0x03, 0x00, 0x00, 0x00,
  0x00, 0x00, 0x0e, 0x00, 0x18, 0x00, 0x17, 0x00, 0x10, 0x00, 0x0c, 0x00,
  0x08, 0x00, 0x04, 0x00, 0x0e, 0x00, 0x00, 0x00, 0x02, 0x00, 0x00, 0x00,
  0x02, 0x00, 0x00, 0x00, 0x02, 0x00, 0x00, 0x00, 0x02, 0x00, 0x00, 0x00,
  0x00, 0x00, 0x00, 0x01, 0x01, 0x00, 0x00, 0x00, 0x0d, 0x00, 0x00, 0x00,
  0x01, 0x00, 0x00, 0x00, 0x0c, 0x00, 0x00, 0x00, 0xb2, 0xff, 0xff, 0xff,
  0x20, 0x00, 0x00, 0x00, 0x00, 0x00, 0x00, 0x01, 0x28, 0x00, 0x00, 0x00,
  0x2c, 0x00, 0x00, 0x00, 0x02, 0x00, 0x00, 0x00, 0x0c, 0x00, 0x10, 0x00,
  0x00, 0x00, 0x0c, 0x00, 0x08, 0x00, 0x07, 0x00, 0x0c, 0x00, 0x00, 0x00,
  0x00, 0x00, 0x00, 0x01, 0x01, 0x00, 0x00, 0x00, 0x01, 0x00, 0x00, 0x00,
  0x01, 0x00, 0x00, 0x00, 0x0c, 0x00, 0x00, 0x00, 0x03, 0x00, 0x00, 0x00,
  0x0b, 0x00, 0x00, 0x00, 0x07, 0x00, 0x00, 0x00, 0x06, 0x00, 0x00, 0x00,
  0x00, 0x00, 0x0e, 0x00, 0x1a, 0x00, 0x14, 0x00, 0x10, 0x00, 0x0c, 0x00,
  0x0b, 0x00, 0x04, 0x00, 0x0e, 0x00, 0x00, 0x00, 0x24, 0x00, 0x00, 0x00,
  0x00, 0x00, 0x00, 0x02, 0x30, 0x00, 0x00, 0x00, 0x34, 0x00, 0x00, 0x00,
  0x01, 0x00, 0x00, 0x00, 0x00, 0x00, 0x0e, 0x00, 0x14, 0x00, 0x00, 0x00,
  0x10, 0x00, 0x0c, 0x00, 0x08, 0x00, 0x07, 0x00, 0x0e, 0x00, 0x00, 0x00,
  0x00, 0x00, 0x00, 0x01, 0x01, 0x00, 0x00, 0x00, 0x01, 0x00, 0x00, 0x00,
  0x01, 0x00, 0x00, 0x00, 0x01, 0x00, 0x00, 0x00, 0x0b, 0x00, 0x00, 0x00,
  0x03, 0x00, 0x00, 0x00, 0x0a, 0x00, 0x00, 0x00, 0x09, 0x00, 0x00, 0x00,
  0x08, 0x00, 0x00, 0x00, 0x00, 0x00, 0x0a, 0x00, 0x0c, 0x00, 0x00, 0x00,
  0x08, 0x00, 0x04, 0x00, 0x0a, 0x00, 0x00, 0x00, 0x08, 0x00, 0x00, 0x00,
  0x0c, 0x00, 0x00, 0x00, 0x01, 0x00, 0x00, 0x00, 0x0a, 0x00, 0x00, 0x00,
  0x01, 0x00, 0x00, 0x00, 0x00, 0x00, 0x00, 0x00, 0x01, 0x00, 0x00, 0x00,
  0x11, 0x00, 0x00, 0x00, 0x01, 0x00, 0x00, 0x00, 0x00, 0x00, 0x00, 0x00,
  0x12, 0x00, 0x00, 0x00, 0x20, 0x0b, 0x00, 0x00, 0xbc, 0x0a, 0x00, 0x00,
  0x1c, 0x0a, 0x00, 0x00, 0xac, 0x09, 0x00, 0x00, 0x38, 0x09, 0x00, 0x00,
  0xcc, 0x08, 0x00, 0x00, 0x98, 0x07, 0x00, 0x00, 0x6c, 0x06, 0x00, 0x00,
  0xf0, 0x05, 0x00, 0x00, 0x24, 0x05, 0x00, 0x00, 0xa0, 0x04, 0x00, 0x00,
  0xac, 0x03, 0x00, 0x00, 0xd8, 0x02, 0x00, 0x00, 0x44, 0x02, 0x00, 0x00,
  0xc8, 0x01, 0x00, 0x00, 0x1c, 0x01, 0x00, 0x00, 0x80, 0x00, 0x00, 0x00,
  0x04, 0x00, 0x00, 0x00, 0x96, 0xfb, 0xff, 0xff, 0x00, 0x00, 0x00, 0x01,
  0x18, 0x00, 0x00, 0x00, 0x20, 0x00, 0x00, 0x00, 0x3c, 0x00, 0x00, 0x00,
  0x12, 0x00, 0x00, 0x00, 0x00, 0x00, 0x00, 0x09, 0x50, 0x00, 0x00, 0x00,
  0x02, 0x00, 0x00, 0x00, 0xff, 0xff, 0xff, 0xff, 0x0a, 0x00, 0x00, 0x00,
  0x34, 0xf6, 0xff, 0xff, 0x08, 0x00, 0x00, 0x00, 0x10, 0x00, 0x00, 0x00,
  0x01, 0x00, 0x00, 0x00, 0x80, 0xff, 0xff, 0xff, 0xff, 0xff, 0xff, 0xff,
  0x01, 0x00, 0x00, 0x00, 0x00, 0x00, 0x80, 0x3b, 0x19, 0x00, 0x00, 0x00,
  0x53, 0x74, 0x61, 0x74, 0x65, 0x66, 0x75, 0x6c, 0x50, 0x61, 0x72, 0x74,
  0x69, 0x74, 0x69, 0x6f, 0x6e, 0x65, 0x64, 0x43, 0x61, 0x6c, 0x6c, 0x3a,
  0x30, 0x00, 0x00, 0x00, 0x02, 0x00, 0x00, 0x00, 0x01, 0x00, 0x00, 0x00,
  0x0a, 0x00, 0x00, 0x00, 0x0e, 0xfc, 0xff, 0xff, 0x00, 0x00, 0x00, 0x01,
  0x18, 0x00, 0x00, 0x00, 0x20, 0x00, 0x00, 0x00, 0x40, 0x00, 0x00, 0x00,
  0x11, 0x00, 0x00, 0x00, 0x00, 0x00, 0x00, 0x09, 0x70, 0x00, 0x00, 0x00,
  0x02, 0x00, 0x00, 0x00, 0xff, 0xff, 0xff, 0xff, 0x0a, 0x00, 0x00, 0x00,
  0xac, 0xf6, 0xff, 0xff, 0x08, 0x00, 0x00, 0x00, 0x14, 0x00, 0x00, 0x00,
  0x01, 0x00, 0x00, 0x00, 0x28, 0x00, 0x00, 0x00, 0x00, 0x00, 0x00, 0x00,
  0x00, 0x00, 0x00, 0x00, 0x01, 0x00, 0x00, 0x00, 0xac, 0xc5, 0xf6, 0x3e,
  0x34, 0x00, 0x00, 0x00, 0x73, 0x65, 0x71, 0x75, 0x65, 0x6e, 0x74, 0x69,
  0x61, 0x6c, 0x2f, 0x64, 0x65, 0x6e, 0x73, 0x65, 0x5f, 0x31, 0x2f, 0x4d,
  0x61, 0x74, 0x4d, 0x75, 0x6c, 0x3b, 0x73, 0x65, 0x71, 0x75, 0x65, 0x6e,
  0x74, 0x69, 0x61, 0x6c, 0x2f, 0x64, 0x65, 0x6e, 0x73, 0x65, 0x5f, 0x31,
  0x2f, 0x42, 0x69, 0x61, 0x73, 0x41, 0x64, 0x64, 0x00, 0x00, 0x00, 0x00,
  0x02, 0x00, 0x00, 0x00, 0x01, 0x00, 0x00, 0x00, 0x0a, 0x00, 0x00, 0x00,
  0xa6, 0xfc, 0xff, 0xff, 0x00, 0x00, 0x00, 0x01, 0x18, 0x00, 0x00, 0x00,
  0x20, 0x00, 0x00, 0x00, 0x40, 0x00, 0x00, 0x00, 0x10, 0x00, 0x00, 0x00,
  0x00, 0x00, 0x00, 0x09, 0x80, 0x00, 0x00, 0x00, 0x02, 0x00, 0x00, 0x00,
  0xff, 0xff, 0xff, 0xff, 0x20, 0x00, 0x00, 0x00, 0x44, 0xf7, 0xff, 0xff,
  0x08, 0x00, 0x00, 0x00, 0x14, 0x00, 0x00, 0x00, 0x01, 0x00, 0x00, 0x00,
  0x80, 0xff, 0xff, 0xff, 0xff, 0xff, 0xff, 0xff, 0x00, 0x00, 0x00, 0x00,
  0x01, 0x00, 0x00, 0x00, 0x8b, 0x7d, 0xf5, 0x3d, 0x46, 0x00, 0x00, 0x00,
  0x73, 0x65, 0x71, 0x75, 0x65, 0x6e, 0x74, 0x69, 0x61, 0x6c, 0x2f, 0x64,
  0x65, 0x6e, 0x73, 0x65, 0x2f, 0x4d, 0x61, 0x74, 0x4d, 0x75, 0x6c, 0x3b,
  0x73, 0x65, 0x71, 0x75, 0x65, 0x6e, 0x74, 0x69, 0x61, 0x6c, 0x2f, 0x64,
  0x65, 0x6e, 0x73, 0x65, 0x2f, 0x52, 0x65, 0x6c, 0x75, 0x3b, 0x73, 0x65,
  0x71, 0x75, 0x65, 0x6e, 0x74, 0x69, 0x61, 0x6c, 0x2f, 0x64, 0x65, 0x6e,
  0x73, 0x65, 0x2f, 0x42, 0x69, 0x61, 0x73, 0x41, 0x64, 0x64, 0x00, 0x00,
  0x02, 0x00, 0x00, 0x00, 0x01, 0x00, 0x00, 0x00, 0x20, 0x00, 0x00, 0x00,
  0x4e, 0xfd, 0xff, 0xff, 0x00, 0x00, 0x00, 0x01, 0x18, 0x00, 0x00, 0x00,
  0x20, 0x00, 0x00, 0x00, 0x3c, 0x00, 0x00, 0x00, 0x0f, 0x00, 0x00, 0x00,
  0x00, 0x00, 0x00, 0x09, 0x50, 0x00, 0x00, 0x00, 0x02, 0x00, 0x00, 0x00,
  0xff, 0xff, 0xff, 0xff, 0x00, 0x01, 0x00, 0x00, 0xec, 0xf7, 0xff, 0xff,
  0x08, 0x00, 0x00, 0x00, 0x10, 0x00, 0x00, 0x00, 0x01, 0x00, 0x00, 0x00,
  0x80, 0xff, 0xff, 0xff, 0xff, 0xff, 0xff, 0xff, 0x01, 0x00, 0x00, 0x00,
  0x92, 0x80, 0x32, 0x3d, 0x1a, 0x00, 0x00, 0x00, 0x73, 0x65, 0x71, 0x75,
  0x65, 0x6e, 0x74, 0x69, 0x61, 0x6c, 0x2f, 0x66, 0x6c, 0x61, 0x74, 0x74,
  0x65, 0x6e, 0x2f, 0x52, 0x65, 0x73, 0x68, 0x61, 0x70, 0x65, 0x00, 0x00,
  0x02, 0x00, 0x00, 0x00, 0x01, 0x00, 0x00, 0x00, 0x00, 0x01, 0x00, 0x00,
  0xc6, 0xfd, 0xff, 0xff, 0x00, 0x00, 0x00, 0x01, 0x18, 0x00, 0x00, 0x00,
  0x28, 0x00, 0x00, 0x00, 0x44, 0x00, 0x00, 0x00, 0x0e, 0x00, 0x00, 0x00,
  0x00, 0x00, 0x00, 0x09, 0x60, 0x00, 0x00, 0x00, 0x04, 0x00, 0x00, 0x00,
  0xff, 0xff, 0xff, 0xff, 0x04, 0x00, 0x00, 0x00, 0x04, 0x00, 0x00, 0x00,
  0x10, 0x00, 0x00, 0x00, 0x6c, 0xf8, 0xff, 0xff, 0x08, 0x00, 0x00, 0x00,
  0x10, 0x00, 0x00, 0x00, 0x01, 0x00, 0x00, 0x00, 0x80, 0xff, 0xff, 0xff,
  0xff, 0xff, 0xff, 0xff, 0x01, 0x00, 0x00, 0x00, 0x92, 0x80, 0x32, 0x3d,
  0x20, 0x00, 0x00, 0x00, 0x73, 0x65, 0x71, 0x75, 0x65, 0x6e, 0x74, 0x69,
  0x61, 0x6c, 0x2f, 0x6d, 0x61, 0x78, 0x5f, 0x70, 0x6f, 0x6f, 0x6c, 0x69,
  0x6e, 0x67, 0x32, 0x64, 0x2f, 0x4d, 0x61, 0x78, 0x50, 0x6f, 0x6f, 0x6c,
  0x00, 0x00, 0x00, 0x00, 0x04, 0x00, 0x00, 0x00, 0x01, 0x00, 0x00, 0x00,
  0x04, 0x00, 0x00, 0x00, 0x04, 0x00, 0x00, 0x00, 0x10, 0x00, 0x00, 0x00,
  0x56, 0xfe, 0xff, 0xff, 0x00, 0x00, 0x00, 0x01, 0x18, 0x00, 0x00, 0x00,
  0x28, 0x00, 0x00, 0x00, 0x44, 0x00, 0x00, 0x00, 0x0d, 0x00, 0x00, 0x00,
  0x00, 0x00, 0x00, 0x09, 0xa0, 0x00, 0x00, 0x00, 0x04, 0x00, 0x00, 0x00,
  0xff, 0xff, 0xff, 0xff, 0x09, 0x00, 0x00, 0x00, 0x09, 0x00, 0x00, 0x00,
  0x10, 0x00, 0x00, 0x00, 0xfc, 0xf8, 0xff, 0xff, 0x08, 0x00, 0x00, 0x00,
  0x10, 0x00, 0x00, 0x00, 0x01, 0x00, 0x00, 0x00, 0x80, 0xff, 0xff, 0xff,
  0xff, 0xff, 0xff, 0xff, 0x01, 0x00, 0x00, 0x00, 0x92, 0x80, 0x32, 0x3d,
  0x62, 0x00, 0x00, 0x00, 0x73, 0x65, 0x71, 0x75, 0x65, 0x6e, 0x74, 0x69,
  0x61, 0x6c, 0x2f, 0x72, 0x65, 0x5f, 0x6c, 0x75, 0x5f, 0x31, 0x2f, 0x52,
  0x65, 0x6c, 0x75, 0x3b, 0x73, 0x65, 0x71, 0x75, 0x65, 0x6e, 0x74, 0x69,
  0x61, 0x6c, 0x2f, 0x62, 0x61, 0x74, 0x63, 0x68, 0x5f, 0x6e, 0x6f, 0x72,
  0x6d, 0x61, 0x6c, 0x69, 0x7a, 0x61, 0x74, 0x69, 0x6f, 0x6e, 0x5f, 0x31,
  0x2f, 0x46, 0x75, 0x73, 0x65, 0x64, 0x42, 0x61, 0x74, 0x63, 0x68, 0x4e,
  0x6f, 0x72, 0x6d, 0x56, 0x33, 0x3b, 0x73, 0x65, 0x71, 0x75, 0x65, 0x6e,
  0x74, 0x69, 0x61, 0x6c, 0x2f, 0x63, 0x6f, 0x6e, 0x76, 0x32, 0x64, 0x2f,
  0x43, 0x6f, 0x6e, 0x76, 0x32, 0x44, 0x00, 0x00, 0x04, 0x00, 0x00, 0x00,
  0x01, 0x00, 0x00, 0x00, 0x09, 0x00, 0x00, 0x00, 0x09, 0x00, 0x00, 0x00,
  0x10, 0x00, 0x00, 0x00, 0x26, 0xff, 0xff, 0xff, 0x00, 0x00, 0x00, 0x01,
  0x18, 0x00, 0x00, 0x00, 0x28, 0x00, 0x00, 0x00, 0x44, 0x00, 0x00, 0x00,
  0x0c, 0x00, 0x00, 0x00, 0x00, 0x00, 0x00, 0x09, 0xa8, 0x00, 0x00, 0x00,
  0x04, 0x00, 0x00, 0x00, 0xff, 0xff, 0xff, 0xff, 0x09, 0x00, 0x00, 0x00,
  0x09, 0x00, 0x00, 0x00, 0x01, 0x00, 0x00, 0x00, 0xcc, 0xf9, 0xff, 0xff,
  0x08, 0x00, 0x00, 0x00, 0x10, 0x00, 0x00, 0x00, 0x01, 0x00, 0x00, 0x00,
  0x80, 0xff, 0xff, 0xff, 0xff, 0xff, 0xff, 0xff, 0x01, 0x00, 0x00, 0x00,
  0x58, 0x62, 0x5c, 0x3c, 0x6b, 0x00, 0x00, 0x00, 0x73, 0x65, 0x71, 0x75,
  0x65, 0x6e, 0x74, 0x69, 0x61, 0x6c, 0x2f, 0x72, 0x65, 0x5f, 0x6c, 0x75,
  0x2f, 0x52, 0x65, 0x6c, 0x75, 0x3b, 0x73, 0x65, 0x71, 0x75, 0x65, 0x6e,
  0x74, 0x69, 0x61, 0x6c, 0x2f, 0x62, 0x61, 0x74, 0x63, 0x68, 0x5f, 0x6e,
  0x6f, 0x72, 0x6d, 0x61, 0x6c, 0x69, 0x7a, 0x61, 0x74, 0x69, 0x6f, 0x6e,
  0x2f, 0x46, 0x75, 0x73, 0x65, 0x64, 0x42, 0x61, 0x74, 0x63, 0x68, 0x4e,
  0x6f, 0x72, 0x6d, 0x56, 0x33, 0x3b, 0x73, 0x65, 0x71, 0x75, 0x65, 0x6e,
  0x74, 0x69, 0x61, 0x6c, 0x2f, 0x64, 0x65, 0x70, 0x74, 0x68, 0x77, 0x69,
  0x73, 0x65, 0x5f, 0x63, 0x6f, 0x6e, 0x76, 0x32, 0x64, 0x2f, 0x64, 0x65,
  0x70, 0x74, 0x68, 0x77, 0x69, 0x73, 0x65, 0x00, 0x04, 0x00, 0x00, 0x00,
  0x01, 0x00, 0x00, 0x00, 0x09, 0x00, 0x00, 0x00, 0x09, 0x00, 0x00, 0x00,
  0x01, 0x00, 0x00, 0x00, 0x00, 0x00, 0x16, 0x00, 0x20, 0x00, 0x1c, 0x00,
  0x1b, 0x00, 0x14, 0x00, 0x10, 0x00, 0x0c, 0x00, 0x00, 0x00, 0x00, 0x00,
  0x08, 0x00, 0x07, 0x00, 0x16, 0x00, 0x00, 0x00, 0x00, 0x00, 0x00, 0x01,
  0x18, 0x00, 0x00, 0x00, 0x28, 0x00, 0x00, 0x00, 0x48, 0x00, 0x00, 0x00,
  0x0b, 0x00, 0x00, 0x00, 0x00, 0x00, 0x00, 0x09, 0x50, 0x00, 0x00, 0x00,
  0x04, 0x00, 0x00, 0x00, 0xff, 0xff, 0xff, 0xff, 0x09, 0x00, 0x00, 0x00,
  0x09, 0x00, 0x00, 0x00, 0x01, 0x00, 0x00, 0x00, 0xbc, 0xfa, 0xff, 0xff,
  0x08, 0x00, 0x00, 0x00, 0x14, 0x00, 0x00, 0x00, 0x01, 0x00, 0x00, 0x00,
  0x87, 0xff, 0xff, 0xff, 0xff, 0xff, 0xff, 0xff, 0x00, 0x00, 0x00, 0x00,
  0x01, 0x00, 0x00, 0x00, 0x49, 0x55, 0x57, 0x41, 0x0c, 0x00, 0x00, 0x00,
  0x74, 0x66, 0x6c, 0x2e, 0x71, 0x75, 0x61, 0x6e, 0x74, 0x69, 0x7a, 0x65,
  0x00, 0x00, 0x00, 0x00, 0x04, 0x00, 0x00, 0x00, 0x01, 0x00, 0x00, 0x00,
  0x09, 0x00, 0x00, 0x00, 0x09, 0x00, 0x00, 0x00, 0x01, 0x00, 0x00, 0x00,
  0x9e, 0xfa, 0xff, 0xff, 0x00, 0x00, 0x00, 0x01, 0x28, 0x00, 0x00, 0x00,
  0x4c, 0x00, 0x00, 0x00, 0x0a, 0x00, 0x00, 0x00, 0x00, 0x00, 0x00, 0x09,
  0x9c, 0x00, 0x00, 0x00, 0x00, 0x00, 0x12, 0x00, 0x10, 0x00, 0x00, 0x00,
  0x00, 0x00, 0x0c, 0x00, 0x08, 0x00, 0x00, 0x00, 0x00, 0x00, 0x04, 0x00,
  0x12, 0x00, 0x00, 0x00, 0x03, 0x00, 0x00, 0x00, 0x08, 0x00, 0x00, 0x00,
  0x14, 0x00, 0x00, 0x00, 0x01, 0x00, 0x00, 0x00, 0x00, 0x00, 0x00, 0x00,
  0x00, 0x00, 0x00, 0x00, 0x00, 0x00, 0x00, 0x00, 0x01, 0x00, 0x00, 0x00,
  0xbc, 0x65, 0x8d, 0x37, 0x55, 0x00, 0x00, 0x00, 0x73, 0x65, 0x71, 0x75,
  0x65, 0x6e, 0x74, 0x69, 0x61, 0x6c, 0x2f, 0x62, 0x61, 0x74, 0x63, 0x68,
  0x5f, 0x6e, 0x6f, 0x72, 0x6d, 0x61, 0x6c, 0x69, 0x7a, 0x61, 0x74, 0x69,
  0x6f, 0x6e, 0x2f, 0x46, 0x75, 0x73, 0x65, 0x64, 0x42, 0x61, 0x74, 0x63,
  0x68, 0x4e, 0x6f, 0x72, 0x6d, 0x56, 0x33, 0x3b, 0x73, 0x65, 0x71, 0x75,
  0x65, 0x6e, 0x74, 0x69, 0x61, 0x6c, 0x2f, 0x64, 0x65, 0x70, 0x74, 0x68,
  0x77, 0x69, 0x73, 0x65, 0x5f, 0x63, 0x6f, 0x6e, 0x76, 0x32, 0x64, 0x2f,
  0x64, 0x65, 0x70, 0x74, 0x68, 0x77, 0x69, 0x73, 0x65, 0x00, 0x00, 0x00,
  0x04, 0x00, 0x00, 0x00, 0x01, 0x00, 0x00, 0x00, 0x03, 0x00, 0x00, 0x00,
  0x03, 0x00, 0x00, 0x00, 0x01, 0x00, 0x00, 0x00, 0x66, 0xfb, 0xff, 0xff,
  0x00, 0x00, 0x00, 0x01, 0x14, 0x00, 0x00, 0x00, 0x30, 0x00, 0x00, 0x00,
  0x09, 0x00, 0x00, 0x00, 0x00, 0x00, 0x00, 0x02, 0x58, 0x00, 0x00, 0x00,
  0xec, 0xfb, 0xff, 0xff, 0x08, 0x00, 0x00, 0x00, 0x10, 0x00, 0x00, 0x00,
  0x01, 0x00, 0x00, 0x00, 0x00, 0x00, 0x00, 0x00, 0x00, 0x00, 0x00, 0x00,
  0x01, 0x00, 0x00, 0x00, 0x18, 0xdf, 0x6d, 0x39, 0x2f, 0x00, 0x00, 0x00,
  0x73, 0x65, 0x71, 0x75, 0x65, 0x6e, 0x74, 0x69, 0x61, 0x6c, 0x2f, 0x62,
  0x61, 0x74, 0x63, 0x68, 0x5f, 0x6e, 0x6f, 0x72, 0x6d, 0x61, 0x6c, 0x69,
  0x7a, 0x61, 0x74, 0x69, 0x6f, 0x6e, 0x2f, 0x46, 0x75, 0x73, 0x65, 0x64,
  0x42, 0x61, 0x74, 0x63, 0x68, 0x4e, 0x6f, 0x72, 0x6d, 0x56, 0x33, 0x00,
  0x01, 0x00, 0x00, 0x00, 0x01, 0x00, 0x00, 0x00, 0xde, 0xfb, 0xff, 0xff,
  0x00, 0x00, 0x00, 0x01, 0x14, 0x00, 0x00, 0x00, 0xe8, 0x00, 0x00, 0x00,
  0x08, 0x00, 0x00, 0x00, 0x00, 0x00, 0x00, 0x09, 0xfc, 0x00, 0x00, 0x00,
  0x64, 0xfc, 0xff, 0xff, 0x08, 0x00, 0x00, 0x00, 0x8c, 0x00, 0x00, 0x00,
  0x10, 0x00, 0x00, 0x00, 0x00, 0x00, 0x00, 0x00, 0x00, 0x00, 0x00, 0x00,
  0x00, 0x00, 0x00, 0x00, 0x00, 0x00, 0x00, 0x00, 0x00, 0x00, 0x00, 0x00,
  0x00, 0x00, 0x00, 0x00, 0x00, 0x00, 0x00, 0x00, 0x00, 0x00, 0x00, 0x00,
  0x00, 0x00, 0x00, 0x00, 0x00, 0x00, 0x00, 0x00, 0x00, 0x00, 0x00, 0x00,
  0x00, 0x00, 0x00, 0x00, 0x00, 0x00, 0x00, 0x00, 0x00, 0x00, 0x00, 0x00,
  0x00, 0x00, 0x00, 0x00, 0x00, 0x00, 0x00, 0x00, 0x00, 0x00, 0x00, 0x00,
  0x00, 0x00, 0x00, 0x00, 0x00, 0x00, 0x00, 0x00, 0x00, 0x00, 0x00, 0x00,
  0x00, 0x00, 0x00, 0x00, 0x00, 0x00, 0x00, 0x00, 0x00, 0x00, 0x00, 0x00,
  0x00, 0x00, 0x00, 0x00, 0x00, 0x00, 0x00, 0x00, 0x00, 0x00, 0x00, 0x00,
  0x00, 0x00, 0x00, 0x00, 0x00, 0x00, 0x00, 0x00, 0x00, 0x00, 0x00, 0x00,
  0x00, 0x00, 0x00, 0x00, 0x00, 0x00, 0x00, 0x00, 0x00, 0x00, 0x00, 0x00,
  0x00, 0x00, 0x00, 0x00, 0x10, 0x00, 0x00, 0x00, 0x03, 0x6d, 0xa4, 0x3c,
  0x70, 0x7f, 0x8e, 0x3c, 0x8c, 0x24, 0xcc, 0x3c, 0x45, 0xf6, 0x60, 0x3c,
  0xf2, 0x9e, 0x1d, 0x3c, 0x01, 0xd3, 0x39, 0x3c, 0x97, 0x4b, 0x27, 0x3c,
  0x50, 0xc2, 0xc2, 0x3c, 0x3e, 0x41, 0x76, 0x3c, 0x6a, 0x87, 0x9a, 0x3c,
  0xd6, 0xc6, 0xba, 0x3c, 0x9b, 0xb2, 0xc0, 0x3c, 0xfa, 0x12, 0xea, 0x3b,
  0x51, 0x82, 0x8e, 0x3c, 0x08, 0xb4, 0x96, 0x3c, 0x32, 0x4b, 0xb7, 0x3c,
  0x18, 0x00, 0x00, 0x00, 0x73, 0x65, 0x71, 0x75, 0x65, 0x6e, 0x74, 0x69,
  0x61, 0x6c, 0x2f, 0x63, 0x6f, 0x6e, 0x76, 0x32, 0x64, 0x2f, 0x43, 0x6f,
  0x6e, 0x76, 0x32, 0x44, 0x00, 0x00, 0x00, 0x00, 0x04, 0x00, 0x00, 0x00,
  0x10, 0x00, 0x00, 0x00, 0x03, 0x00, 0x00, 0x00, 0x03, 0x00, 0x00, 0x00,
  0x01, 0x00, 0x00, 0x00, 0x06, 0xfd, 0xff, 0xff, 0x00, 0x00, 0x00, 0x01,
  0x14, 0x00, 0x00, 0x00, 0xe4, 0x00, 0x00, 0x00, 0x07, 0x00, 0x00, 0x00,
  0x00, 0x00, 0x00, 0x02, 0x10, 0x01, 0x00, 0x00, 0x8c, 0xfd, 0xff, 0xff,
  0x08, 0x00, 0x00, 0x00, 0x88, 0x00, 0x00, 0x00, 0x10, 0x00, 0x00, 0x00,
  0x00, 0x00, 0x00, 0x00, 0x00, 0x00, 0x00, 0x00, 0x00, 0x00, 0x00, 0x00,
  0x00, 0x00, 0x00, 0x00, 0x00, 0x00, 0x00, 0x00, 0x00, 0x00, 0x00, 0x00,
  0x00, 0x00, 0x00, 0x00, 0x00, 0x00, 0x00, 0x00, 0x00, 0x00, 0x00, 0x00,
  0x00, 0x00, 0x00, 0x00, 0x00, 0x00, 0x00, 0x00, 0x00, 0x00, 0x00, 0x00,
  0x00, 0x00, 0x00, 0x00, 0x00, 0x00, 0x00, 0x00, 0x00, 0x00, 0x00, 0x00,
  0x00, 0x00, 0x00, 0x00, 0x00, 0x00, 0x00, 0x00, 0x00, 0x00, 0x00, 0x00,
  0x00, 0x00, 0x00, 0x00, 0x00, 0x00, 0x00, 0x00, 0x00, 0x00, 0x00, 0x00,
  0x00, 0x00, 0x00, 0x00, 0x00, 0x00, 0x00, 0x00, 0x00, 0x00, 0x00, 0x00,
  0x00, 0x00, 0x00, 0x00, 0x00, 0x00, 0x00, 0x00, 0x00, 0x00, 0x00, 0x00,
  0x00, 0x00, 0x00, 0x00, 0x00, 0x00, 0x00, 0x00, 0x00, 0x00, 0x00, 0x00,
  0x00, 0x00, 0x00, 0x00, 0x00, 0x00, 0x00, 0x00, 0x10, 0x00, 0x00, 0x00,
  0xd9, 0x8c, 0x8d, 0x39, 0x84, 0x58, 0x75, 0x39, 0xd4, 0xbd, 0xaf, 0x39,
  0x0f, 0xaa, 0x41, 0x39, 0x25, 0xb1, 0x07, 0x39, 0xb8, 0xf8, 0x1f, 0x39,
  0x3a, 0x05, 0x10, 0x39, 0xce, 0xa9, 0xa7, 0x39, 0xab, 0xfe, 0x53, 0x39,
  0xbc, 0x07, 0x85, 0x39, 0xa0, 0xca, 0xa0, 0x39, 0x84, 0xe3, 0xa5, 0x39,
  0x3b, 0x82, 0xc9, 0x38, 0x79, 0x5d, 0x75, 0x39, 0x9c, 0xbc, 0x81, 0x39,
  0x09, 0xcb, 0x9d, 0x39, 0x31, 0x00, 0x00, 0x00, 0x73, 0x65, 0x71, 0x75,
  0x65, 0x6e, 0x74, 0x69, 0x61, 0x6c, 0x2f, 0x62, 0x61, 0x74, 0x63, 0x68,
  0x5f, 0x6e, 0x6f, 0x72, 0x6d, 0x61, 0x6c, 0x69, 0x7a, 0x61, 0x74, 0x69,
  0x6f, 0x6e, 0x5f, 0x31, 0x2f, 0x46, 0x75, 0x73, 0x65, 0x64, 0x42, 0x61,
  0x74, 0x63, 0x68, 0x4e, 0x6f, 0x72, 0x6d, 0x56, 0x33, 0x00, 0x00, 0x00,
  0x01, 0x00, 0x00, 0x00, 0x10, 0x00, 0x00, 0x00, 0x36, 0xfe, 0xff, 0xff,
  0x00, 0x00, 0x00, 0x01, 0x14, 0x00, 0x00, 0x00, 0x34, 0x00, 0x00, 0x00,
  0x06, 0x00, 0x00, 0x00, 0x00, 0x00, 0x00, 0x09, 0x44, 0x00, 0x00, 0x00,
  0xbc, 0xfe, 0xff, 0xff, 0x08, 0x00, 0x00, 0x00, 0x14, 0x00, 0x00, 0x00,
  0x01, 0x00, 0x00, 0x00, 0x00, 0x00, 0x00, 0x00, 0x00, 0x00, 0x00, 0x00,
  0x00, 0x00, 0x00, 0x00, 0x01, 0x00, 0x00, 0x00, 0x0f, 0x22, 0xa1, 0x3c,
  0x17, 0x00, 0x00, 0x00, 0x73, 0x65, 0x71, 0x75, 0x65, 0x6e, 0x74, 0x69,
  0x61, 0x6c, 0x2f, 0x64, 0x65, 0x6e, 0x73, 0x65, 0x2f, 0x4d, 0x61, 0x74,
  0x4d, 0x75, 0x6c, 0x00, 0x02, 0x00, 0x00, 0x00, 0x20, 0x00, 0x00, 0x00,
  0x00, 0x01, 0x00, 0x00, 0x9e, 0xfe, 0xff, 0xff, 0x00, 0x00, 0x00, 0x01,
  0x14, 0x00, 0x00, 0x00, 0x30, 0x00, 0x00, 0x00, 0x05, 0x00, 0x00, 0x00,
  0x00, 0x00, 0x00, 0x02, 0x50, 0x00, 0x00, 0x00, 0x24, 0xff, 0xff, 0xff,
  0x08, 0x00, 0x00, 0x00, 0x10, 0x00, 0x00, 0x00, 0x01, 0x00, 0x00, 0x00,
  0x00, 0x00, 0x00, 0x00, 0x00, 0x00, 0x00, 0x00, 0x01, 0x00, 0x00, 0x00,
  0x37, 0xb5, 0x60, 0x3a, 0x27, 0x00, 0x00, 0x00, 0x73, 0x65, 0x71, 0x75,
  0x65, 0x6e, 0x74, 0x69, 0x61, 0x6c, 0x2f, 0x64, 0x65, 0x6e, 0x73, 0x65,
  0x2f, 0x42, 0x69, 0x61, 0x73, 0x41, 0x64, 0x64, 0x2f, 0x52, 0x65, 0x61,
  0x64, 0x56, 0x61, 0x72, 0x69, 0x61, 0x62, 0x6c, 0x65, 0x4f, 0x70, 0x00,
  0x01, 0x00, 0x00, 0x00, 0x20, 0x00, 0x00, 0x00, 0x0e, 0xff, 0xff, 0xff,
  0x00, 0x00, 0x00, 0x01, 0x14, 0x00, 0x00, 0x00, 0x34, 0x00, 0x00, 0x00,
  0x04, 0x00, 0x00, 0x00, 0x00, 0x00, 0x00, 0x09, 0x48, 0x00, 0x00, 0x00,
  0x94, 0xff, 0xff, 0xff, 0x08, 0x00, 0x00, 0x00, 0x14, 0x00, 0x00, 0x00,
  0x01, 0x00, 0x00, 0x00, 0x00, 0x00, 0x00, 0x00, 0x00, 0x00, 0x00, 0x00,
  0x00, 0x00, 0x00, 0x00, 0x01, 0x00, 0x00, 0x00, 0xb5, 0xb0, 0x5c, 0x3c,
  0x19, 0x00, 0x00, 0x00, 0x73, 0x65, 0x71, 0x75, 0x65, 0x6e, 0x74, 0x69,
  0x61, 0x6c, 0x2f, 0x64, 0x65, 0x6e, 0x73, 0x65, 0x5f, 0x31, 0x2f, 0x4d,
  0x61, 0x74, 0x4d, 0x75, 0x6c, 0x00, 0x00, 0x00, 0x02, 0x00, 0x00, 0x00,
  0x0a, 0x00, 0x00, 0x00, 0x20, 0x00, 0x00, 0x00, 0x7a, 0xff, 0xff, 0xff,
  0x00, 0x00, 0x00, 0x01, 0x20, 0x00, 0x00, 0x00, 0x40, 0x00, 0x00, 0x00,
  0x03, 0x00, 0x00, 0x00, 0x00, 0x00, 0x00, 0x02, 0x64, 0x00, 0x00, 0x00,
  0x0c, 0x00, 0x0c, 0x00, 0x00, 0x00, 0x00, 0x00, 0x08, 0x00, 0x04, 0x00,
  0x0c, 0x00, 0x00, 0x00, 0x08, 0x00, 0x00, 0x00, 0x14, 0x00, 0x00, 0x00,
  0x01, 0x00, 0x00, 0x00, 0x00, 0x00, 0x00, 0x00, 0x00, 0x00, 0x00, 0x00,
  0x00, 0x00, 0x00, 0x00, 0x01, 0x00, 0x00, 0x00, 0x57, 0xa1, 0xd3, 0x3a,
  0x29, 0x00, 0x00, 0x00, 0x73, 0x65, 0x71, 0x75, 0x65, 0x6e, 0x74, 0x69,
  0x61, 0x6c, 0x2f, 0x64, 0x65, 0x6e, 0x73, 0x65, 0x5f, 0x31, 0x2f, 0x42,
  0x69, 0x61, 0x73, 0x41, 0x64, 0x64, 0x2f, 0x52, 0x65, 0x61, 0x64, 0x56,
  0x61, 0x72, 0x69, 0x61, 0x62, 0x6c, 0x65, 0x4f, 0x70, 0x00, 0x00, 0x00,
  0x01, 0x00, 0x00, 0x00, 0x0a, 0x00, 0x00, 0x00, 0x00, 0x00, 0x16, 0x00,
  0x1c, 0x00, 0x18, 0x00, 0x17, 0x00, 0x10, 0x00, 0x0c, 0x00, 0x08, 0x00,
  0x00, 0x00, 0x00, 0x00, 0x00, 0x00, 0x07, 0x00, 0x16, 0x00, 0x00, 0x00,
  0x00, 0x00, 0x00, 0x01, 0x14, 0x00, 0x00, 0x00, 0x14, 0x00, 0x00, 0x00,
  0x02, 0x00, 0x00, 0x00, 0x00, 0x00, 0x00, 0x02, 0x28, 0x00, 0x00, 0x00,
  0x8c, 0xff, 0xff, 0xff, 0x18, 0x00, 0x00, 0x00, 0x73, 0x65, 0x71, 0x75,
  0x65, 0x6e, 0x74, 0x69, 0x61, 0x6c, 0x2f, 0x66, 0x6c, 0x61, 0x74, 0x74,
  0x65, 0x6e, 0x2f, 0x43, 0x6f, 0x6e, 0x73, 0x74, 0x00, 0x00, 0x00, 0x00,
  0x01, 0x00, 0x00, 0x00, 0x02, 0x00, 0x00, 0x00, 0x00, 0x00, 0x16, 0x00,
  0x1c, 0x00, 0x18, 0x00, 0x00, 0x00, 0x14, 0x00, 0x10, 0x00, 0x0c, 0x00,
  0x00, 0x00, 0x00, 0x00, 0x08, 0x00, 0x07, 0x00, 0x16, 0x00, 0x00, 0x00,
  0x00, 0x00, 0x00, 0x01, 0x14, 0x00, 0x00, 0x00, 0x28, 0x00, 0x00, 0x00,
  0x28, 0x00, 0x00, 0x00, 0x01, 0x00, 0x00, 0x00, 0x50, 0x00, 0x00, 0x00,
  0x04, 0x00, 0x00, 0x00, 0xff, 0xff, 0xff, 0xff, 0x09, 0x00, 0x00, 0x00,
  0x09, 0x00, 0x00, 0x00, 0x01, 0x00, 0x00, 0x00, 0x04, 0x00, 0x04, 0x00,
  0x04, 0x00, 0x00, 0x00, 0x28, 0x00, 0x00, 0x00, 0x73, 0x65, 0x72, 0x76,
  0x69, 0x6e, 0x67, 0x5f, 0x64, 0x65, 0x66, 0x61, 0x75, 0x6c, 0x74, 0x5f,
  0x64, 0x65, 0x70, 0x74, 0x68, 0x77, 0x69, 0x73, 0x65, 0x5f, 0x63, 0x6f,
  0x6e, 0x76, 0x32, 0x64, 0x5f, 0x69, 0x6e, 0x70, 0x75, 0x74, 0x3a, 0x30,
  0x00, 0x00, 0x00, 0x00, 0x04, 0x00, 0x00, 0x00, 0x01, 0x00, 0x00, 0x00,
  0x09, 0x00, 0x00, 0x00, 0x09, 0x00, 0x00, 0x00, 0x01, 0x00, 0x00, 0x00,
  0x07, 0x00, 0x00, 0x00, 0x90, 0x00, 0x00, 0x00, 0x70, 0x00, 0x00, 0x00,
  0x50, 0x00, 0x00, 0x00, 0x3c, 0x00, 0x00, 0x00, 0x2c, 0x00, 0x00, 0x00,
  0x18, 0x00, 0x00, 0x00, 0x04, 0x00, 0x00, 0x00, 0xb4, 0xff, 0xff, 0xff,
  0x19, 0x00, 0x00, 0x00, 0x02, 0x00, 0x00, 0x00, 0x00, 0x00, 0x00, 0x19,
  0xc4, 0xff, 0xff, 0xff, 0x09, 0x00, 0x00, 0x00, 0x04, 0x00, 0x00, 0x00,
  0x00, 0x00, 0x00, 0x09, 0xb8, 0xff, 0xff, 0xff, 0x16, 0x00, 0x00, 0x00,
  0x00, 0x00, 0x00, 0x16, 0xe0, 0xff, 0xff, 0xff, 0x11, 0x00, 0x00, 0x00,
  0x02, 0x00, 0x00, 0x00, 0x00, 0x00, 0x00, 0x11, 0xf0, 0xff, 0xff, 0xff,
  0x03, 0x00, 0x00, 0x00, 0x03, 0x00, 0x00, 0x00, 0x00, 0x00, 0x00, 0x03,
  0x0c, 0x00, 0x10, 0x00, 0x0f, 0x00, 0x00, 0x00, 0x08, 0x00, 0x04, 0x00,
  0x0c, 0x00, 0x00, 0x00, 0x04, 0x00, 0x00, 0x00, 0x03, 0x00, 0x00, 0x00,
  0x00, 0x00, 0x00, 0x04, 0x0c, 0x00, 0x0c, 0x00, 0x0b, 0x00, 0x00, 0x00,
  0x00, 0x00, 0x04, 0x00, 0x0c, 0x00, 0x00, 0x00, 0x72, 0x00, 0x00, 0x00,
  0x00, 0x00, 0x00, 0x72
};
const unsigned int CWRU_Bearing_2_best_model_with_fe_tflite_len = 13336;
