#include <cstdint>

#include "fault_diagnosis/sine_model_quantized_model_data.h"

const unsigned int g_sine_model_quantized_model_data_size = 3024;
alignas(16) const unsigned char g_sine_model_quantized_model_data[] = {0x20,0x0,0x0,0x0,0x54,0x46,0x4c,0x33,0x0,0x0,0x0,0x0,0x14,0x0,0x20,0x0,0x1c,0x0,0x18,0x0,0x14,0x0,0x10,0x0,0xc,0x0,0x0,0x0,0x8,0x0,0x4,0x0,0x14,0x0,0x0,0x0,0x1c,0x0,0x0,0x0,0x84,0x0,0x0,0x0,0xdc,0x0,0x0,0x0,0xa8,0x3,0x0,0x0,0xb8,0x3,0x0,0x0,0x44,0xb,0x0,0x0,0x3,0x0,0x0,0x0,0x1,0x0,0x0,0x0,0x4,0x0,0x0,0x0,0x6,0xfc,0xff,0xff,0xc,0x0,0x0,0x0,0x1c,0x0,0x0,0x0,0x38,0x0,0x0,0x0,0xf,0x0,0x0,0x0,0x73,0x65,0x72,0x76,0x69,0x6e,0x67,0x5f,0x64,0x65,0x66,0x61,0x75,0x6c,0x74,0x0,0x1,0x0,0x0,0x0,0x4,0x0,0x0,0x0,0x98,0xff,0xff,0xff,0xb,0x0,0x0,0x0,0x4,0x0,0x0,0x0,0x7,0x0,0x0,0x0,0x64,0x65,0x6e,0x73,0x65,0x5f,0x32,0x0,0x1,0x0,0x0,0x0,0x4,0x0,0x0,0x0,0xda,0xfc,0xff,0xff,0x4,0x0,0x0,0x0,0xb,0x0,0x0,0x0,0x64,0x65,0x6e,0x73,0x65,0x5f,0x69,0x6e,0x70,0x75,0x74,0x0,0x2,0x0,0x0,0x0,0x34,0x0,0x0,0x0,0x4,0x0,0x0,0x0,0xdc,0xff,0xff,0xff,0xe,0x0,0x0,0x0,0x4,0x0,0x0,0x0,0x13,0x0,0x0,0x0,0x43,0x4f,0x4e,0x56,0x45,0x52,0x53,0x49,0x4f,0x4e,0x5f,0x4d,0x45,0x54,0x41,0x44,0x41,0x54,0x41,0x0,0x8,0x0,0xc,0x0,0x8,0x0,0x4,0x0,0x8,0x0,0x0,0x0,0xd,0x0,0x0,0x0,0x4,0x0,0x0,0x0,0x13,0x0,0x0,0x0,0x6d,0x69,0x6e,0x5f,0x72,0x75,0x6e,0x74,0x69,0x6d,0x65,0x5f,0x76,0x65,0x72,0x73,0x69,0x6f,0x6e,0x0,0xf,0x0,0x0,0x0,0xc8,0x2,0x0,0x0,0xc0,0x2,0x0,0x0,0xac,0x2,0x0,0x0,0x84,0x2,0x0,0x0,0x34,0x2,0x0,0x0,0x24,0x1,0x0,0x0,0xd4,0x0,0x0,0x0,0xb4,0x0,0x0,0x0,0xac,0x0,0x0,0x0,0xa4,0x0,0x0,0x0,0x9c,0x0,0x0,0x0,0x94,0x0,0x0,0x0,0x8c,0x0,0x0,0x0,0x6c,0x0,0x0,0x0,0x4,0x0,0x0,0x0,0x8e,0xfd,0xff,0xff,0x4,0x0,0x0,0x0,0x58,0x0,0x0,0x0,0xc,0x0,0x0,0x0,0x8,0x0,0xe,0x0,0x8,0x0,0x4,0x0,0x8,0x0,0x0,0x0,0x10,0x0,0x0,0x0,0x28,0x0,0x0,0x0,0x0,0x0,0x6,0x0,0x8,0x0,0x4,0x0,0x6,0x0,0x0,0x0,0x4,0x0,0x0,0x0,0x1,0x0,0x0,0x0,0xeb,0x3,0x0,0x0,0x0,0x0,0xa,0x0,0x10,0x0,0xc,0x0,0x8,0x0,0x4,0x0,0xa,0x0,0x0,0x0,0x2,0x0,0x0,0x0,0x2,0x0,0x0,0x0,0x4,0x0,0x0,0x0,0x6,0x0,0x0,0x0,0x32,0x2e,0x31,0x33,0x2e,0x30,0x0,0x0,0xf2,0xfd,0xff,0xff,0x4,0x0,0x0,0x0,0x10,0x0,0x0,0x0,0x31,0x2e,0x31,0x34,0x2e,0x30,0x0,0x0,0x0,0x0,0x0,0x0,0x0,0x0,0x0,0x0,0x84,0xf6,0xff,0xff,0x88,0xf6,0xff,0xff,0x8c,0xf6,0xff,0xff,0x90,0xf6,0xff,0xff,0x94,0xf6,0xff,0xff,0x22,0xfe,0xff,0xff,0x4,0x0,0x0,0x0,0x10,0x0,0x0,0x0,0x6b,0x4f,0x50,0x1b,0x91,0x5a,0x81,0xd6,0xf1,0xc5,0x2d,0x29,0x8e,0x0,0xbd,0x38,0x3e,0xfe,0xff,0xff,0x4,0x0,0x0,0x0,0x40,0x0,0x0,0x0,0xa3,0x1,0x0,0x0,0xe2,0xde,0xff,0xff,0x8,0xc,0x0,0x0,0xe2,0xff,0xff,0xff,0x0,0x0,0x0,0x0,0x40,0xe9,0xff,0xff,0x0,0x0,0x0,0x0,0x0,0x0,0x0,0x0,0xcc,0x24,0x0,0x0,0x0,0x0,0x0,0x0,0x85,0xf9,0xff,0xff,0x55,0xfd,0xff,0xff,0x0,0x0,0x0,0x0,0x88,0xff,0xff,0xff,0x0,0x0,0x0,0x0,0xc1,0xee,0xff,0xff,0x8a,0xfe,0xff,0xff,0x4,0x0,0x0,0x0,0x0,0x1,0x0,0x0,0xa8,0xc7,0x95,0xcf,0xfe,0xc2,0x11,0xc4,0x46,0xdf,0x41,0x3c,0x6,0x96,0x39,0xe6,0xd5,0x1d,0xfe,0xc6,0x4,0x24,0xe4,0xda,0xf2,0x15,0xdc,0x38,0x34,0xd2,0x16,0xc0,0x1f,0x52,0xc6,0xfe,0x2f,0x2e,0xdf,0xff,0xd2,0xf3,0x16,0x16,0xf1,0xf4,0x26,0x59,0xda,0xf1,0x1c,0xed,0x25,0x39,0xec,0xc9,0x51,0x1e,0xda,0x47,0x16,0xe2,0x23,0xe2,0x9c,0xd2,0xb0,0xdd,0xe2,0xb9,0xd2,0xc2,0x50,0xf8,0x12,0x3d,0xe8,0xad,0x21,0xc1,0xf,0xe6,0x27,0xd8,0xb,0x29,0x35,0xda,0xfd,0xf1,0xf,0xf4,0xd0,0x32,0x25,0x6,0x1a,0xc5,0xf8,0x9,0x37,0xb6,0xd8,0xc0,0x58,0x1c,0xd3,0x1d,0xc1,0x6,0x1e,0xb0,0xed,0x83,0xf9,0x54,0xc1,0x19,0x3c,0x25,0x60,0xdb,0x9a,0x23,0xed,0x0,0x35,0x9a,0xfd,0xc1,0x31,0xf,0xe7,0x39,0x1c,0xf8,0xf3,0x2c,0xc0,0xd9,0xd8,0x2e,0xe7,0xba,0x20,0xc4,0xf2,0xe7,0xd,0xe,0xe7,0xe5,0xf1,0xc5,0xda,0xe3,0xe0,0x29,0xfd,0xe9,0xcb,0x2,0xbe,0xdb,0x23,0xf8,0x0,0x4,0x23,0x30,0xd,0xd8,0xc8,0xfa,0x16,0x11,0xc4,0x2d,0x5,0xf4,0x1d,0xd,0xe6,0x11,0xda,0x1e,0xd4,0xfa,0x29,0x31,0x2a,0xca,0x11,0xc7,0x33,0xf0,0xf3,0x12,0x38,0x1d,0x2f,0xed,0xb,0xf5,0xc3,0x3,0x1b,0x2b,0xe5,0x2e,0xa3,0xd9,0x22,0xb8,0xeb,0xd4,0x55,0xe0,0x9,0x25,0x5,0x10,0xd8,0xef,0x26,0x4c,0xed,0x9,0x39,0x3e,0xcc,0x40,0x90,0xd2,0x22,0x5,0xdc,0xc5,0x37,0x11,0xd2,0x7f,0x1,0x23,0xc0,0x34,0xf7,0xf3,0xaf,0x3d,0xe0,0x1,0x30,0x32,0x1a,0x3f,0x96,0xff,0xff,0xff,0x4,0x0,0x0,0x0,0x40,0x0,0x0,0x0,0x3,0x14,0x0,0x0,0xa,0xff,0xff,0xff,0x50,0xe7,0xff,0xff,0x79,0xf,0x0,0x0,0xc0,0x18,0x0,0x0,0x92,0xb,0x0,0x0,0x27,0x24,0x0,0x0,0xb4,0x23,0x0,0x0,0x64,0x9,0x0,0x0,0x0,0x0,0x0,0x0,0xba,0xfc,0xff,0xff,0xd3,0xff,0xff,0xff,0x11,0x1a,0x0,0x0,0x29,0x10,0x0,0x0,0xf0,0xe4,0xff,0xff,0x30,0xe2,0xff,0xff,0xe2,0xff,0xff,0xff,0x4,0x0,0x0,0x0,0x10,0x0,0x0,0x0,0xa6,0x13,0x43,0xf0,0xc7,0xfb,0x5f,0x5f,0xf8,0xf4,0x31,0xd3,0xc3,0xd1,0x28,0x7f,0x0,0x0,0x6,0x0,0x8,0x0,0x4,0x0,0x6,0x0,0x0,0x0,0x4,0x0,0x0,0x0,0x4,0x0,0x0,0x0,0xaf,0xeb,0xff,0xff,0x8c,0xf8,0xff,0xff,0x90,0xf8,0xff,0xff,0xf,0x0,0x0,0x0,0x4d,0x4c,0x49,0x52,0x20,0x43,0x6f,0x6e,0x76,0x65,0x72,0x74,0x65,0x64,0x2e,0x0,0x1,0x0,0x0,0x0,0x14,0x0,0x0,0x0,0x0,0x0,0xe,0x0,0x18,0x0,0x14,0x0,0x10,0x0,0xc,0x0,0x8,0x0,0x4,0x0,0xe,0x0,0x0,0x0,0x14,0x0,0x0,0x0,0x1c,0x0,0x0,0x0,0x40,0x1,0x0,0x0,0x44,0x1,0x0,0x0,0x48,0x1,0x0,0x0,0x4,0x0,0x0,0x0,0x6d,0x61,0x69,0x6e,0x0,0x0,0x0,0x0,0x5,0x0,0x0,0x0,0x8,0x1,0x0,0x0,0xb8,0x0,0x0,0x0,0x6c,0x0,0x0,0x0,0x34,0x0,0x0,0x0,0x10,0x0,0x0,0x0,0x0,0x0,0xa,0x0,0x10,0x0,0xc,0x0,0x8,0x0,0x4,0x0,0xa,0x0,0x0,0x0,0xc,0x0,0x0,0x0,0x10,0x0,0x0,0x0,0x2,0x0,0x0,0x0,0x1,0x0,0x0,0x0,0xb,0x0,0x0,0x0,0x1,0x0,0x0,0x0,0xa,0x0,0x0,0x0,0x92,0xff,0xff,0xff,0x14,0x0,0x0,0x0,0x0,0x0,0x0,0x8,0x10,0x0,0x0,0x0,0x14,0x0,0x0,0x0,0x1,0x0,0x0,0x0,0x40,0xf9,0xff,0xff,0x1,0x0,0x0,0x0,0xa,0x0,0x0,0x0,0x3,0x0,0x0,0x0,0x9,0x0,0x0,0x0,0x2,0x0,0x0,0x0,0x1,0x0,0x0,0x0,0xc6,0xff,0xff,0xff,0x14,0x0,0x0,0x0,0x0,0x0,0x0,0x8,0x14,0x0,0x0,0x0,0x18,0x0,0x0,0x0,0x1,0x0,0x0,0x0,0xb6,0xff,0xff,0xff,0x0,0x0,0x0,0x1,0x1,0x0,0x0,0x0,0x9,0x0,0x0,0x0,0x3,0x0,0x0,0x0,0x8,0x0,0x0,0x0,0x4,0x0,0x0,0x0,0x3,0x0,0x0,0x0,0x0,0x0,0xe,0x0,0x1a,0x0,0x14,0x0,0x10,0x0,0xc,0x0,0xb,0x0,0x4,0x0,0xe,0x0,0x0,0x0,0x1c,0x0,0x0,0x0,0x0,0x0,0x0,0x8,0x1c,0x0,0x0,0x0,0x20,0x0,0x0,0x0,0x1,0x0,0x0,0x0,0x0,0x0,0x6,0x0,0x8,0x0,0x7,0x0,0x6,0x0,0x0,0x0,0x0,0x0,0x0,0x1,0x1,0x0,0x0,0x0,0x8,0x0,0x0,0x0,0x3,0x0,0x0,0x0,0x7,0x0,0x0,0x0,0x6,0x0,0x0,0x0,0x5,0x0,0x0,0x0,0x0,0x0,0xa,0x0,0xc,0x0,0x0,0x0,0x8,0x0,0x4,0x0,0xa,0x0,0x0,0x0,0x8,0x0,0x0,0x0,0xc,0x0,0x0,0x0,0x1,0x0,0x0,0x0,0x7,0x0,0x0,0x0,0x1,0x0,0x0,0x0,0x0,0x0,0x0,0x0,0x1,0x0,0x0,0x0,0xb,0x0,0x0,0x0,0x1,0x0,0x0,0x0,0x0,0x0,0x0,0x0,0xc,0x0,0x0,0x0,0xb8,0x5,0x0,0x0,0x18,0x5,0x0,0x0,0x90,0x4,0x0,0x0,0x14,0x4,0x0,0x0,0xa8,0x3,0x0,0x0,0x34,0x3,0x0,0x0,0xc8,0x2,0x0,0x0,0x54,0x2,0x0,0x0,0x90,0x1,0x0,0x0,0xdc,0x0,0x0,0x0,0x60,0x0,0x0,0x0,0x4,0x0,0x0,0x0,0x8e,0xfa,0xff,0xff,0x0,0x0,0x0,0x1,0x14,0x0,0x0,0x0,0x1c,0x0,0x0,0x0,0x1c,0x0,0x0,0x0,0xc,0x0,0x0,0x0,0x34,0x0,0x0,0x0,0x2,0x0,0x0,0x0,0xff,0xff,0xff,0xff,0x1,0x0,0x0,0x0,0x78,0xfa,0xff,0xff,0x19,0x0,0x0,0x0,0x53,0x74,0x61,0x74,0x65,0x66,0x75,0x6c,0x50,0x61,0x72,0x74,0x69,0x74,0x69,0x6f,0x6e,0x65,0x64,0x43,0x61,0x6c,0x6c,0x3a,0x30,0x0,0x0,0x0,0x2,0x0,0x0,0x0,0x1,0x0,0x0,0x0,0x1,0x0,0x0,0x0,0x2e,0xfe,0xff,0xff,0x0,0x0,0x0,0x1,0x18,0x0,0x0,0x0,0x20,0x0,0x0,0x0,0x3c,0x0,0x0,0x0,0xb,0x0,0x0,0x0,0x0,0x0,0x0,0x9,0x50,0x0,0x0,0x0,0x2,0x0,0x0,0x0,0xff,0xff,0xff,0xff,0x1,0x0,0x0,0x0,0x7c,0xfb,0xff,0xff,0x8,0x0,0x0,0x0,0x10,0x0,0x0,0x0,0x1,0x0,0x0,0x0,0xfc,0xff,0xff,0xff,0xff,0xff,0xff,0xff,0x1,0x0,0x0,0x0,0xb2,0x3b,0x0,0x3c,0x1a,0x0,0x0,0x0,0x53,0x74,0x61,0x74,0x65,0x66,0x75,0x6c,0x50,0x61,0x72,0x74,0x69,0x74,0x69,0x6f,0x6e,0x65,0x64,0x43,0x61,0x6c,0x6c,0x3a,0x30,0x31,0x0,0x0,0x2,0x0,0x0,0x0,0x1,0x0,0x0,0x0,0x1,0x0,0x0,0x0,0xa6,0xfe,0xff,0xff,0x0,0x0,0x0,0x1,0x18,0x0,0x0,0x0,0x20,0x0,0x0,0x0,0x40,0x0,0x0,0x0,0xa,0x0,0x0,0x0,0x0,0x0,0x0,0x9,0x88,0x0,0x0,0x0,0x2,0x0,0x0,0x0,0xff,0xff,0xff,0xff,0x10,0x0,0x0,0x0,0xf4,0xfb,0xff,0xff,0x8,0x0,0x0,0x0,0x14,0x0,0x0,0x0,0x1,0x0,0x0,0x0,0x80,0xff,0xff,0xff,0xff,0xff,0xff,0xff,0x0,0x0,0x0,0x0,0x1,0x0,0x0,0x0,0x72,0x43,0xc7,0x3b,0x4c,0x0,0x0,0x0,0x73,0x65,0x71,0x75,0x65,0x6e,0x74,0x69,0x61,0x6c,0x2f,0x64,0x65,0x6e,0x73,0x65,0x5f,0x31,0x2f,0x4d,0x61,0x74,0x4d,0x75,0x6c,0x3b,0x73,0x65,0x71,0x75,0x65,0x6e,0x74,0x69,0x61,0x6c,0x2f,0x64,0x65,0x6e,0x73,0x65,0x5f,0x31,0x2f,0x52,0x65,0x6c,0x75,0x3b,0x73,0x65,0x71,0x75,0x65,0x6e,0x74,0x69,0x61,0x6c,0x2f,0x64,0x65,0x6e,0x73,0x65,0x5f,0x31,0x2f,0x42,0x69,0x61,0x73,0x41,0x64,0x64,0x0,0x0,0x0,0x0,0x2,0x0,0x0,0x0,0x1,0x0,0x0,0x0,0x10,0x0,0x0,0x0,0x56,0xff,0xff,0xff,0x0,0x0,0x0,0x1,0x18,0x0,0x0,0x0,0x20,0x0,0x0,0x0,0x40,0x0,0x0,0x0,0x9,0x0,0x0,0x0,0x0,0x0,0x0,0x9,0x80,0x0,0x0,0x0,0x2,0x0,0x0,0x0,0xff,0xff,0xff,0xff,0x10,0x0,0x0,0x0,0xa4,0xfc,0xff,0xff,0x8,0x0,0x0,0x0,0x14,0x0,0x0,0x0,0x1,0x0,0x0,0x0,0x80,0xff,0xff,0xff,0xff,0xff,0xff,0xff,0x0,0x0,0x0,0x0,0x1,0x0,0x0,0x0,0x85,0x40,0x1e,0x3c,0x46,0x0,0x0,0x0,0x73,0x65,0x71,0x75,0x65,0x6e,0x74,0x69,0x61,0x6c,0x2f,0x64,0x65,0x6e,0x73,0x65,0x2f,0x4d,0x61,0x74,0x4d,0x75,0x6c,0x3b,0x73,0x65,0x71,0x75,0x65,0x6e,0x74,0x69,0x61,0x6c,0x2f,0x64,0x65,0x6e,0x73,0x65,0x2f,0x52,0x65,0x6c,0x75,0x3b,0x73,0x65,0x71,0x75,0x65,0x6e,0x74,0x69,0x61,0x6c,0x2f,0x64,0x65,0x6e,0x73,0x65,0x2f,0x42,0x69,0x61,0x73,0x41,0x64,0x64,0x0,0x0,0x2,0x0,0x0,0x0,0x1,0x0,0x0,0x0,0x10,0x0,0x0,0x0,0x0,0x0,0x16,0x0,0x20,0x0,0x1c,0x0,0x1b,0x0,0x14,0x0,0x10,0x0,0xc,0x0,0x0,0x0,0x0,0x0,0x8,0x0,0x7,0x0,0x16,0x0,0x0,0x0,0x0,0x0,0x0,0x1,0x18,0x0,0x0,0x0,0x20,0x0,0x0,0x0,0x40,0x0,0x0,0x0,0x8,0x0,0x0,0x0,0x0,0x0,0x0,0x9,0x48,0x0,0x0,0x0,0x2,0x0,0x0,0x0,0xff,0xff,0xff,0xff,0x1,0x0,0x0,0x0,0x64,0xfd,0xff,0xff,0x8,0x0,0x0,0x0,0x14,0x0,0x0,0x0,0x1,0x0,0x0,0x0,0x80,0xff,0xff,0xff,0xff,0xff,0xff,0xff,0x0,0x0,0x0,0x0,0x1,0x0,0x0,0x0,0x56,0x52,0xc9,0x3c,0xc,0x0,0x0,0x0,0x74,0x66,0x6c,0x2e,0x71,0x75,0x61,0x6e,0x74,0x69,0x7a,0x65,0x0,0x0,0x0,0x0,0x2,0x0,0x0,0x0,0x1,0x0,0x0,0x0,0x1,0x0,0x0,0x0,0xda,0xfd,0xff,0xff,0x0,0x0,0x0,0x1,0x14,0x0,0x0,0x0,0x34,0x0,0x0,0x0,0x7,0x0,0x0,0x0,0x0,0x0,0x0,0x9,0x44,0x0,0x0,0x0,0xc4,0xfd,0xff,0xff,0x8,0x0,0x0,0x0,0x14,0x0,0x0,0x0,0x1,0x0,0x0,0x0,0x0,0x0,0x0,0x0,0x0,0x0,0x0,0x0,0x0,0x0,0x0,0x0,0x1,0x0,0x0,0x0,0xde,0xda,0x6c,0x3b,0x17,0x0,0x0,0x0,0x73,0x65,0x71,0x75,0x65,0x6e,0x74,0x69,0x61,0x6c,0x2f,0x64,0x65,0x6e,0x73,0x65,0x2f,0x4d,0x61,0x74,0x4d,0x75,0x6c,0x0,0x2,0x0,0x0,0x0,0x10,0x0,0x0,0x0,0x1,0x0,0x0,0x0,0x42,0xfe,0xff,0xff,0x0,0x0,0x0,0x1,0x14,0x0,0x0,0x0,0x30,0x0,0x0,0x0,0x6,0x0,0x0,0x0,0x0,0x0,0x0,0x2,0x50,0x0,0x0,0x0,0x2c,0xfe,0xff,0xff,0x8,0x0,0x0,0x0,0x10,0x0,0x0,0x0,0x1,0x0,0x0,0x0,0x0,0x0,0x0,0x0,0x0,0x0,0x0,0x0,0x1,0x0,0x0,0x0,0x6,0x44,0xba,0x38,0x27,0x0,0x0,0x0,0x73,0x65,0x71,0x75,0x65,0x6e,0x74,0x69,0x61,0x6c,0x2f,0x64,0x65,0x6e,0x73,0x65,0x2f,0x42,0x69,0x61,0x73,0x41,0x64,0x64,0x2f,0x52,0x65,0x61,0x64,0x56,0x61,0x72,0x69,0x61,0x62,0x6c,0x65,0x4f,0x70,0x0,0x1,0x0,0x0,0x0,0x10,0x0,0x0,0x0,0xb2,0xfe,0xff,0xff,0x0,0x0,0x0,0x1,0x14,0x0,0x0,0x0,0x30,0x0,0x0,0x0,0x5,0x0,0x0,0x0,0x0,0x0,0x0,0x9,0x44,0x0,0x0,0x0,0x9c,0xfe,0xff,0xff,0x8,0x0,0x0,0x0,0x10,0x0,0x0,0x0,0x1,0x0,0x0,0x0,0x0,0x0,0x0,0x0,0x0,0x0,0x0,0x0,0x1,0x0,0x0,0x0,0xb2,0x8a,0xdc,0x3b,0x19,0x0,0x0,0x0,0x73,0x65,0x71,0x75,0x65,0x6e,0x74,0x69,0x61,0x6c,0x2f,0x64,0x65,0x6e,0x73,0x65,0x5f,0x31,0x2f,0x4d,0x61,0x74,0x4d,0x75,0x6c,0x0,0x0,0x0,0x2,0x0,0x0,0x0,0x10,0x0,0x0,0x0,0x10,0x0,0x0,0x0,0x1a,0xff,0xff,0xff,0x0,0x0,0x0,0x1,0x14,0x0,0x0,0x0,0x34,0x0,0x0,0x0,0x4,0x0,0x0,0x0,0x0,0x0,0x0,0x2,0x58,0x0,0x0,0x0,0x4,0xff,0xff,0xff,0x8,0x0,0x0,0x0,0x14,0x0,0x0,0x0,0x1,0x0,0x0,0x0,0x0,0x0,0x0,0x0,0x0,0x0,0x0,0x0,0x0,0x0,0x0,0x0,0x1,0x0,0x0,0x0,0x2f,0x55,0x88,0x38,0x29,0x0,0x0,0x0,0x73,0x65,0x71,0x75,0x65,0x6e,0x74,0x69,0x61,0x6c,0x2f,0x64,0x65,0x6e,0x73,0x65,0x5f,0x31,0x2f,0x42,0x69,0x61,0x73,0x41,0x64,0x64,0x2f,0x52,0x65,0x61,0x64,0x56,0x61,0x72,0x69,0x61,0x62,0x6c,0x65,0x4f,0x70,0x0,0x0,0x0,0x1,0x0,0x0,0x0,0x10,0x0,0x0,0x0,0x92,0xff,0xff,0xff,0x0,0x0,0x0,0x1,0x14,0x0,0x0,0x0,0x34,0x0,0x0,0x0,0x3,0x0,0x0,0x0,0x0,0x0,0x0,0x9,0x48,0x0,0x0,0x0,0x7c,0xff,0xff,0xff,0x8,0x0,0x0,0x0,0x14,0x0,0x0,0x0,0x1,0x0,0x0,0x0,0x0,0x0,0x0,0x0,0x0,0x0,0x0,0x0,0x0,0x0,0x0,0x0,0x1,0x0,0x0,0x0,0x3e,0xc3,0x38,0x3c,0x19,0x0,0x0,0x0,0x73,0x65,0x71,0x75,0x65,0x6e,0x74,0x69,0x61,0x6c,0x2f,0x64,0x65,0x6e,0x73,0x65,0x5f,0x32,0x2f,0x4d,0x61,0x74,0x4d,0x75,0x6c,0x0,0x0,0x0,0x2,0x0,0x0,0x0,0x1,0x0,0x0,0x0,0x10,0x0,0x0,0x0,0x0,0x0,0x16,0x0,0x1c,0x0,0x18,0x0,0x17,0x0,0x10,0x0,0xc,0x0,0x8,0x0,0x0,0x0,0x0,0x0,0x0,0x0,0x7,0x0,0x16,0x0,0x0,0x0,0x0,0x0,0x0,0x1,0x20,0x0,0x0,0x0,0x40,0x0,0x0,0x0,0x2,0x0,0x0,0x0,0x0,0x0,0x0,0x2,0x64,0x0,0x0,0x0,0xc,0x0,0xc,0x0,0x0,0x0,0x0,0x0,0x8,0x0,0x4,0x0,0xc,0x0,0x0,0x0,0x8,0x0,0x0,0x0,0x14,0x0,0x0,0x0,0x1,0x0,0x0,0x0,0x0,0x0,0x0,0x0,0x0,0x0,0x0,0x0,0x0,0x0,0x0,0x0,0x1,0x0,0x0,0x0,0x73,0xd0,0x8f,0x38,0x29,0x0,0x0,0x0,0x73,0x65,0x71,0x75,0x65,0x6e,0x74,0x69,0x61,0x6c,0x2f,0x64,0x65,0x6e,0x73,0x65,0x5f,0x32,0x2f,0x42,0x69,0x61,0x73,0x41,0x64,0x64,0x2f,0x52,0x65,0x61,0x64,0x56,0x61,0x72,0x69,0x61,0x62,0x6c,0x65,0x4f,0x70,0x0,0x0,0x0,0x1,0x0,0x0,0x0,0x1,0x0,0x0,0x0,0x0,0x0,0x16,0x0,0x1c,0x0,0x18,0x0,0x0,0x0,0x14,0x0,0x10,0x0,0xc,0x0,0x0,0x0,0x0,0x0,0x8,0x0,0x7,0x0,0x16,0x0,0x0,0x0,0x0,0x0,0x0,0x1,0x14,0x0,0x0,0x0,0x20,0x0,0x0,0x0,0x20,0x0,0x0,0x0,0x1,0x0,0x0,0x0,0x3c,0x0,0x0,0x0,0x2,0x0,0x0,0x0,0xff,0xff,0xff,0xff,0x1,0x0,0x0,0x0,0x4,0x0,0x4,0x0,0x4,0x0,0x0,0x0,0x1d,0x0,0x0,0x0,0x73,0x65,0x72,0x76,0x69,0x6e,0x67,0x5f,0x64,0x65,0x66,0x61,0x75,0x6c,0x74,0x5f,0x64,0x65,0x6e,0x73,0x65,0x5f,0x69,0x6e,0x70,0x75,0x74,0x3a,0x30,0x0,0x0,0x0,0x2,0x0,0x0,0x0,0x1,0x0,0x0,0x0,0x1,0x0,0x0,0x0,0x3,0x0,0x0,0x0,0x44,0x0,0x0,0x0,0x24,0x0,0x0,0x0,0x4,0x0,0x0,0x0,0xf0,0xff,0xff,0xff,0x6,0x0,0x0,0x0,0x2,0x0,0x0,0x0,0x0,0x0,0x0,0x6,0xc,0x0,0x10,0x0,0xf,0x0,0x0,0x0,0x8,0x0,0x4,0x0,0xc,0x0,0x0,0x0,0x9,0x0,0x0,0x0,0x4,0x0,0x0,0x0,0x0,0x0,0x0,0x9,0xc,0x0,0xc,0x0,0xb,0x0,0x0,0x0,0x0,0x0,0x4,0x0,0xc,0x0,0x0,0x0,0x72,0x0,0x0,0x0,0x0,0x0,0x0,0x72};
